[PAD]
[UNK]
[CLS]
[SEP]
[MASK]
!
"
#
$
%
&
'
(
)
*
+
,
-
.
/
0
1
2
3
4
5
6
7
8
9
:
;
<
=
>
?
@
[
\
]
^
_
`
a
b
c
d
e
f
g
h
i
j
k
l
m
n
o
p
q
r
s
t
u
v
w
x
y
z
{
|
}
~
¡
£
¦
¨
©
ª
«
´
»
½
ß
æ
ð
ø
þ
ı
’
##c
##r
##i
##p
##e
##v
##n
##t
##s
##l
##y
##q
##u
##f
##a
##g
##m
##d
##o
##z
##h
##b
##3
##9
##w
##k
##1
##x
##8
##7
##0
##4
##j
##´
##2
##5
##6
##©
##ª
##ß
##ø
##ı
##ð
th
##is
##er
the
##in
this
##ie
##at
##en
##or
mo
##ou
##as
of
##il
is
##an
##vie
##ed
##ing
##ar
movie
##st
an
##on
##re
to
##ly
##it
##al
in
be
on
fil
##om
film
wh
##ve
re
##le
##ot
it
and
was
##ic
##es
##ad
##ow
st
##ch
se
##ll
##ut
##ent
##ay
##gh
##ct
ha
that
##ir
##oo
##ver
one
br
for
##id
you
##am
##ere
##et
as
have
not
##se
sh
##ally
##ion
##ith
li
##ce
ab
##ke
##im
with
##ld
##ght
wat
my
##ur
fr
##ter
##out
watch
com
##ust
sa
##ul
ch
##ers
fir
ex
##ri
first
at
##ck
we
about
so
##un
##th
wor
lo
##em
##ood
su
when
##nd
saw
##el
##ear
al
pr
##ol
som
all
##op
sp
what
##ill
##ra
am
has
##ould
but
like
just
##ery
if
ever
gre
do
##ble
en
can
me
##art
##ant
##ge
de
man
##ain
ne
very
##ight
really
from
movies
act
good
see
by
some
##ast
di
sc
great
##ap
##ite
##od
pl
tim
##au
there
who
are
##ful
##ous
seen
##ss
ve
##ore
##one
had
##ment
##ist
out
ma
tr
no
##and
con
kn
show
bad
say
int
pre
fe
##ate
##her
##ory
##ven
19
mu
af
fa
##ough
po
##oy
##ive
##ies
un
most
##ook
##pe
##ard
been
##ig
##ack
best
##pp
go
know
##ink
time
##ort
don
ad
watched
##all
##ame
mad
##gin
story
after
well
cl
love
##ind
hor
pe
##itt
ag
only
##um
fan
how
year
worst
dire
think
any
##ond
qu
##ber
##ud
##view
##ong
##ought
##ak
##ation
films
he
dis
te
direct
##ess
made
many
##ure
##ish
##ich
up
bec
pro
##oil
ser
##ious
##ab
wr
peop
im
##ick
spoil
did
##fe
review
start
tw
##ays
rem
people
watching
or
le
ro
##ound
fun
aw
##ine
##us
ar
##ved
would
read
much
##ary
##ple
jo
get
bl
ok
##pt
cr
every
##ass
##ag
##ose
us
##ving
enj
horr
becau
##end
##ff
##ne
star
##ue
per
enjoy
look
##tain
could
##ely
##man
##our
##pect
fl
thr
##able
##ree
because
##int
never
years
gr
##os
thought
off
##ian
##other
##ty
##ile
comed
spoilers
##ide
horror
##ated
comment
will
##hing
thing
bel
rec
why
got
##ny
##ry
des
even
two
may
big
litt
##per
those
ter
lot
more
##te
over
bas
tv
##ark
oth
his
##ci
char
bet
want
##ually
hi
exce
und
##ict
##ical
hear
little
another
sur
night
its
fo
##ris
##rible
co
##ice
##ity
series
here
##leas
last
director
##ning
expect
let
##est
fi
war
comedy
gu
too
sl
car
ori
than
loved
##act
##ien
ac
while
##00
plot
wond
bef
fav
##age
they
##ake
##de
min
real
origin
dr
##og
##ably
##ph
where
##ember
were
##erest
abs
##ked
new
other
under
wa
pret
##az
back
##ason
belie
sim
into
rent
mov
few
before
must
fin
##pl
interest
wonder
##cu
seem
tra
class
youn
remember
ep
tal
does
part
bor
##olut
being
gen
old
##own
##ia
funny
##odu
young
hard
excell
now
sin
##io
dv
##iend
high
##qu
which
##be
excellent
far
should
mak
ste
bo
##po
##hn
##ily
##get
didn
##ild
quite
str
##iz
##pris
10
seeing
enjoyed
absolut
believe
alw
dvd
fam
##ac
way
make
awful
john
##ney
##ome
give
op
##ath
##ating
##ster
pretty
##aut
##vel
produ
long
prob
ear
##lf
begin
alth
always
acting
having
favor
##iece
somet
short
surpris
bu
att
che
found
##ently
##ens
ago
work
although
##ress
##for
##ost
200
tit
mar
chan
original
friend
going
vie
epis
probably
##ock
beaut
cou
your
since
app
book
terrible
##ro
play
came
went
anyone
cra
##ise
liked
episod
ed
##ire
interesting
wow
life
docu
actually
low
##ib
##are
adm
her
oh
##les
view
##day
ho
##ible
##ave
heard
vers
##mm
better
##ip
ke
classic
##ull
actor
document
sure
scre
##ace
again
through
##ction
set
such
amer
##if
##av
enter
absolutely
hu
##we
wonderful
cin
vide
end
reason
favorite
col
nothing
spe
kid
##ult
find
rented
##aw
once
disap
cast
sec
dec
bud
##aster
inc
mus
##red
thi
poss
comments
##ach
##apt
version
based
ty
##ash
def
charact
##ool
cinem
sm
##ican
gir
##li
##oth
##thing
okay
##urn
starts
mis
##ep
##uly
amaz
title
gi
ide
yes
##ama
kind
feel
writ
imp
lau
releas
beauti
hol
isn
looking
##der
reviews
##ial
##ves
##less
times
bar
these
##iller
video
disappo
beautiful
call
anim
cons
sch
truly
three
mon
##ang
child
alm
lu
rom
##ane
##bt
##self
ev
##vious
##wood
##ance
flick
dou
down
##ied
##umb
guy
ph
##ual
##ening
documentary
nor
##wn
happ
##erson
ob
piece
wi
without
em
wom
##0s
##stand
stu
late
##llow
##ather
##iv
comp
##fect
disappoint
ext
##sh
wasn
comple
still
poor
minut
##son
##akes
stars
hop
ll
pleas
##aught
prem
though
word
true
tell
acc
huge
brill
put
sat
episode
entertain
defin
cre
pa
action
recently
idea
hit
##ider
scen
admit
mat
##rist
##iant
things
##sp
said
feat
##led
##ah
directed
something
american
right
har
master
par
point
gl
##ank
el
movi
198
seems
almost
god
come
need
diff
budget
dark
##ically
drama
##ell
##amp
contain
waste
world
girl
brilliant
##cc
bit
##ord
##ouse
##ative
##ott
fant
mi
del
ge
197
early
sub
adapt
amazing
holly
day
desc
person
ru
yet
##ek
##ting
dre
##yn
##ote
christ
199
follow
simp
boy
cle
##na
##bert
wanted
boring
##rem
second
##sc
##ense
understand
##ced
##vis
tot
art
hum
take
horrible
black
laugh
fact
crit
family
might
writt
##uring
plays
perfor
cer
jack
mich
##ying
theat
stud
supp
consider
bought
hal
hone
##ward
##iest
##cial
house
##ited
super
mean
##ript
##ted
sequ
agree
##ibly
simply
honest
##ames
##ime
##ody
doubt
##oon
##ilar
rel
unf
surprised
##db
cinema
cont
spoiler
written
someone
minutes
definite
done
full
wal
imdb
inter
sever
ent
cann
eas
hist
pict
##ces
##ired
she
teen
desp
##ew
ind
##ents
##ird
shows
makes
production
run
rating
##nt
comm
thriller
sad
##co
##ner
exam
##ience
typ
main
##ady
haven
enough
##aps
hollywood
definitely
mor
##wh
##ures
serious
everyone
##rib
started
stup
sil
##empt
actors
##ned
##ations
mid
mind
##vent
##ings
script
maybe
dav
summ
gener
pet
sor
ye
##ect
wester
doesn
released
certain
sequel
##ier
##ten
##ael
##ange
##ley
eng
##ortun
tele
extrem
gave
sw
ret
novel
reading
several
caught
##ub
##agin
ins
##vers
195
usually
perh
pol
##king
brit
screen
example
dan
fine
four
hour
then
friends
western
cor
cur
##ft
perfect
couple
half
perhaps
pow
##ics
fair
despite
##land
##ench
##ale
saying
expecting
wit
##ons
greatest
er
nice
##ence
exc
##raph
sci
attempt
michael
during
mur
red
sn
sound
tre
their
myself
colle
woman
dir
##ever
##ase
imagin
performan
av
sit
vis
##gr
##ese
gets
miss
ten
##he
##ingly
##alian
expl
worth
hell
around
incred
totally
cop
turn
##iting
stand
exper
couldn
finally
strange
wife
stupid
ap
both
cut
cart
hilar
##ton
##gu
##dy
abo
week
pick
same
often
##gest
disney
aust
la
name
##so
top
##ately
fans
everything
hate
rich
##dd
##ors
dep
anything
##bo
sex
comes
known
robert
funn
##osed
cannot
sorry
dra
ey
##ular
loc
dead
##ished
small
entertaining
##ness
##ta
##uck
##ky
tha
##omm
slow
making
mr
##ix
##que
least
warning
characters
televis
home
line
##ject
##ention
suck
##astic
tale
character
extremely
game
james
##ring
##spe
##oup
tom
french
conf
remake
premise
ca
less
##ork
##ret
proble
write
care
possible
david
list
##ade
##elt
post
happen
hilarious
je
takes
##bb
##orge
##ition
uni
rock
used
opin
obvious
words
problem
pot
tri
win
##body
somewh
heart
took
crap
given
days
ra
whole
school
british
##nel
##ling
##ks
beginning
special
musical
masterp
picture
port
##ont
##ograph
music
romant
fre
kill
rid
previous
wrong
group
possibly
supposed
five
hun
hand
our
##gg
##its
##ided
##ient
simple
impress
opinion
felt
ir
##omb
stra
alre
fest
193
add
cartoon
bat
cat
sing
##uth
away
##ween
certainly
bi
bre
##lin
ang
today
##itive
##als
inde
stor
worse
norm
dist
gar
men
rather
ver
##ming
them
##ans
rep
hav
prom
##ign
goes
king
wo
##iam
shot
exp
paul
fantastic
bur
##cer
##vol
bro
qual
adaptation
television
romantic
20
gra
mart
pur
##sy
##ica
also
death
quest
genre
opening
called
differ
contains
unfortun
ger
mel
won
res
##istic
##aking
recomm
channel
theater
peter
power
funniest
ele
espe
mem
own
ri
##ates
##imes
lost
tried
194
wish
between
##iction
typical
masterpiece
already
sort
knew
dri
dem
pain
val
##rated
reg
forward
light
thinking
complet
scene
honestly
hy
pop
vi
##no
##ail
##mer
##ino
gold
easily
du
##line
pred
pres
upon
guess
george
id
mess
num
town
##cept
frank
maj
pos
blood
starring
trail
kids
recommend
lar
##ger
stun
##oof
fran
feature
age
jim
pat
##ren
##ler
##zz
##ism
ass
succ
william
cheap
clear
bun
near
sy
tou
##ulous
##ung
deser
expected
descri
imagine
performance
aud
da
jap
##ential
myst
##rif
complete
seriously
##str
##ony
##res
##ets
shame
live
exact
box
gives
fall
gem
odd
sk
sun
##lish
##kes
season
##amer
sometimes
please
return
completely
japan
wood
##esome
shock
along
fail
unt
talk
appear
question
especi
##vin
mag
##ational
enjoyable
##like
different
major
describe
det
mark
ann
italian
##ident
plan
wrote
count
played
writer
hel
pri
van
##ins
##oul
inst
try
lead
except
finished
decent
writing
release
history
austr
straight
normally
camp
##iss
##ching
trying
rob
keep
disappointed
happened
success
ba
den
dear
ef
ut
##ina
moment
money
##ters
head
looked
##ester
##ross
tells
scenes
diffic
richard
number
cent
gh
##gan
##ged
##ma
##ief
##atic
sho
sol
##ther
advent
basically
viewing
screening
decided
local
exactly
aver
tur
##vi
##ys
##way
stop
space
guys
york
##air
##ka
##asc
##amed
preview
looks
cult
case
fu
rated
swe
use
##zy
##bs
third
##arr
filmm
sty
196
final
hitch
##ography
bab
eff
var
##mas
##br
inf
coming
deb
##fully
clich
reviewers
favour
fairly
mystery
30
dumb
park
rare
sam
##my
ref
##aker
awesome
others
highly
surprise
chees
hope
delight
superb
incredible
predict
cour
die
eve
lame
yo
ant
told
dog
talent
##ize
famous
episodes
poorly
subject
until
fiction
sle
six
##row
##xt
##ines
##ene
##ili
##ett
manag
begins
luck
##ival
effect
utter
air
bill
cap
lack
med
zomb
##ially
##aim
##dle
##iter
##etic
##olog
##itting
leg
##ush
biggest
expectations
slas
across
women
following
picked
especially
11
80
fast
fasc
ju
jud
mist
osc
yester
##cy
##ert
moder
##itch
white
store
forget
##ions
##ula
deep
neg
acted
##ape
left
job
earth
unfortunately
positive
slasher
city
pac
##ues
##oss
##ati
place
seemed
born
compar
critics
entire
murder
somewhat
favourite
mer
pass
ti
vamp
##ped
##men
moving
plain
noir
says
cred
originally
strong
chance
above
ridic
stories
trailer
difficult
oscar
ii
jane
lat
lou
pure
son
tak
##ball
##lling
tries
steve
##anger
christmas
intern
silly
yeah
##head
obviously
potential
portr
average
15
eur
mc
past
##me
##bel
##ised
##ising
##ison
##atio
stan
##ither
##ured
fred
##ope
getting
cover
evil
humor
histor
college
quality
yesterday
dam
jon
mil
tar
##enn
##ional
##key
##ists
trash
role
##reep
steven
check
type
children
english
german
effort
fascin
dar
fem
hus
sout
ul
##een
##vil
##med
##old
move
form
susp
grew
concept
unlike
##ager
steph
emot
disappointing
disappointment
ale
cable
cool
dull
psy
sand
##bc
thor
##ero
beh
rea
dial
scott
reviewer
recent
appar
barb
dream
summary
hitchc
kar
mill
nic
##ov
bey
rece
stre
living
wel
scar
scary
charming
fantas
critic
indep
##rific
capt
pu
##ipp
##eng
mod
##oun
filmed
brought
broth
##iday
lives
##right
prof
joe
usual
fox
absolute
animated
accident
else
unique
predictable
husb
hitchcock
camer
jul
##com
##die
##oc
##ob
##ki
thom
##let
actress
science
intr
mini
partic
mix
deli
generally
hours
memor
japanese
modern
psych
beyond
independ
husband
1st
ast
ber
him
por
rate
##edly
##ara
insp
##ctor
##urb
hea
##using
comedies
foot
minor
hero
satur
creat
cute
single
viol
cheesy
ult
ah
gone
vict
##ai
##ms
##den
weird
among
crime
peri
working
matter
girls
festival
help
course
brothers
70
cal
hall
nat
rar
rip
##con
mother
##inger
##rel
##ald
seag
##ether
shakes
shown
lee
charl
surf
viewed
middle
impressed
broad
vampire
behind
ahead
ful
free
hot
jer
lear
##pear
##uel
##gi
toget
sto
##ides
comic
los
prop
spent
intri
##itty
disco
##used
##ended
underrated
import
animation
phil
phot
glad
describ
copy
turned
stunning
fantasy
father
land
##oid
whe
itself
spir
face
team
carl
waiting
##ized
reasons
features
easy
sweet
debut
legend
ridiculous
period
creep
fol
fool
loo
mention
non
path
rad
wil
ways
##riend
##ius
##ug
##inc
##iel
##ats
bes
##omin
##otic
##enty
##uster
weak
alone
scient
remind
open
appre
columb
secret
russ
follows
angel
negative
dialog
12
boo
ce
fig
jour
sent
sense
tor
##eem
##lud
##ker
thin
##ased
##ana
whether
##urs
##ury
fro
comb
progr
twice
cost
produced
hold
month
emb
minute
hopes
pleasant
##aughter
dread
excited
independent
saturday
seagal
13
bol
cow
ou
song
##ived
##to
##ax
##ister
moon
self
aspect
alien
close
hey
lots
slight
surprisingly
playing
beautifully
extra
clever
considered
silent
experience
powerful
bunch
lucky
50
east
ess
lam
mine
mild
ni
named
pal
ton
vir
wre
##ca
##iness
##ount
invol
wasted
##ows
stay
lik
abou
##iment
compl
wouldn
terrific
interested
eddie
monster
pleasure
eye
sucks
jean
##iliar
zombie
stephen
apparently
program
aka
bus
eight
hbo
les
mary
rain
##tle
##by
##iev
##ites
rev
##owing
state
##ute
bru
brain
##und
##ops
deal
intell
lovely
tech
block
flaw
##ians
##cuse
anime
human
australian
female
thorough
thomas
together
dreadful
18
ben
each
either
fight
gri
gang
ill
killer
oper
##go
##ges
##ital
stri
stink
stumb
concer
mostly
remark
basic
travel
works
2005
against
includ
girlf
personally
student
finest
redeem
deserves
delightful
intrigu
gay
oli
si
sar
side
vh
ww
##gy
##ered
##ield
##ots
##eth
##unk
quick
disag
leave
road
award
cry
directors
##play
bored
genius
buff
feeling
writers
missed
eyes
south
heaven
rarely
folks
intellig
auth
due
gent
lon
lond
law
pil
ram
sick
wild
zero
##ios
##oit
island
##ann
anth
west
##elle
##olf
unbel
teach
become
prov
grand
overall
wants
fire
thank
familiar
opens
north
obs
entertainment
summer
polit
police
standard
garb
martin
clearly
touching
style
managed
europe
suspense
alex
pathetic
appreci
bil
biz
bbc
cas
fut
hated
liter
net
opp
occ
syn
##cing
##cle
##par
##hh
##rey
init
##iced
seven
forg
able
chap
chris
chuck
excuse
alert
pra
##ously
disg
##ague
nightm
reality
wait
train
needs
laughed
running
incredibly
ghost
adventure
portray
important
london
unbeliev
80s
hen
kr
ren
ray
vot
##ec
##aa
##boy
##ko
##ored
##arch
beat
ham
##urt
front
doctor
canad
grade
books
crazy
##ific
happens
suppose
career
batman
purch
regard
popular
nearly
baby
paced
profess
victor
shakespear
bruce
90
aired
hom
lady
mal
pie
sitting
##ror
##night
##up
##oe
##hi
##arre
##ities
rest
##lla
brother
brief
lif
friday
devel
badly
knowing
cross
cold
##standing
hoping
total
entry
hands
moments
fascinating
particular
discover
wrest
blockb
disagree
bother
kung
mas
met
pay
pack
rand
sens
uk
##time
##sw
##gar
thou
##cted
brings
fort
##sel
##ionally
within
sold
suc
sus
spoof
showing
unus
knows
charles
produc
2006
giving
romance
##ship
accur
##anks
teenager
somewhere
break
indeed
annoy
country
utterly
later
taken
thoroughly
intelligent
bizarre
14
100
cass
dick
pan
roy
wind
##pr
##ze
##hood
began
reven
bring
ask
##sem
water
compe
##ement
suff
allen
spend
next
##ments
fell
offic
finish
epic
hardly
viewers
premi
contin
sadly
dirty
appe
present
filmmaker
cliche
jerry
scientist
stumbled
gentle
bed
daughter
fat
fond
lyn
ted
vo
##use
##ding
##hic
##wart
##ali
andre
note
doll
##aus
outstanding
fab
##ppy
however
tex
direction
order
arg
joke
2001
amazed
crew
harry
pointless
##otten
considering
westerns
avid
sucked
disturb
painful
audience
returns
appears
solid
effects
charlie
techn
redeeming
garbage
shakespeare
60
bott
numb
tired
vs
##cent
##gs
##how
##ham
##bor
##ering
##orious
mot
##onna
##entious
##vert
aside
soap
spl
trou
une
adv
roll
below
bette
dram
parts
buy
##ford
beauty
kevin
america
compan
paris
personal
engag
hello
historical
##ength
introdu
ultim
columbo
months
era
mass
tend
##ns
##gn
##iet
##anna
inv
##entially
##oooo
brook
##aming
noticed
lived
cha
alright
##opher
green
##ains
actual
##ode
storyline
disc
level
thrill
talking
step
earli
attra
cinematic
laurel
swed
trek
avoid
golden
falls
robin
compared
fulci
journey
bolly
dad
esc
gore
jr
lord
national
ot
ran
sal
wid
##cast
##ried
##ni
##lock
##gic
##mon
##wr
##inary
##ato
stere
mex
adam
##ump
##ude
disaster
impo
flat
commented
carp
kept
ending
roman
happy
1980
rubb
christian
mainly
##ribly
##ubl
performances
depress
univers
##onto
respect
touch
mistake
tonight
girlfriend
appreciate
billy
develop
revenge
bottom
earlier
bon
din
est
fal
gun
kong
ta
##ii
##tra
##laim
##uss
##ugg
##field
##gl
##mark
##ww
##kin
thir
##iety
##atch
moved
filled
##oty
andy
##sey
cho
sug
##ants
outs
mac
afr
##ooked
##orts
project
twist
blue
everybody
record
foc
pretentious
stewart
2002
stuff
created
darkness
christopher
pictures
indian
curr
weekend
jeff
melod
recommended
shocked
talented
author
##oitation
future
17
40
aut
ban
bir
cate
cell
fly
goo
ki
kick
ron
rus
rac
squ
sign
soul
tough
tour
ven
wes
##nn
##uc
##dance
##zan
##work
##ator
moun
##real
resp
sta
stoo
stage
sem
haun
fore
lim
##ural
subt
prison
span
cant
somehow
scr
trad
trans
192
claim
##berg
crim
##ending
similar
producer
holes
cinemat
luc
matth
1970
teenage
exciting
visual
apart
weeks
planet
prior
radio
russian
vhs
synops
premiere
carpent
suggest
25
70s
der
date
fear
joy
na
sne
taking
##cis
##ric
##iff
##tan
##ined
##aton
##orth
mom
##iti
sea
ford
ash
notice
chin
firstly
##thur
sum
alf
##olph
allow
doc
somebody
##aste
div
showed
adult
##aki
becom
became
imm
lew
argu
##ioc
product
##ensive
marvel
##mmy
featuring
1990
boys
jackson
midnight
yea
treat
problems
express
idi
detail
priv
anti
spirit
creepy
toronto
embarr
sarah
pilot
anthony
purchased
blockbuster
producers
texas
imposs
ach
band
cu
hon
hid
jason
lang
lines
length
pull
wer
##cess
##rama
##nie
##ts
##lo
##ba
##enz
ine
waters
soft
##emy
spin
meets
deals
devil
clint
proves
serial
arm
joan
undou
lets
guil
news
simon
##ifi
wonderfully
finds
smart
kinda
barry
means
1950
collection
explor
explain
musicals
catch
large
woody
tarzan
camera
surface
opera
oliver
unbelievable
unusual
fabulous
disturbing
bollywood
rubbish
##ublic
synopsis
alfred
embarrass
bond
dom
dub
hat
hay
hong
ign
mcc
ny
nin
nick
page
san
tem
##ron
##igh
##ike
##uff
##ga
##gal
##more
##han
##back
##ja
##iser
sell
##lli
##iring
former
watc
##ura
##tern
sav
expe
##une
alt
alan
amusing
meant
advert
club
##abl
leon
aware
arri
##endous
flash
growing
##osa
overl
base
##cio
realistic
realize
underst
gene
##iac
favorites
attention
appall
spect
misf
points
eliz
walking
morning
general
sequels
err
sitcom
turns
experien
sexy
burt
hype
international
jones
street
slightly
remarkable
occas
chaplin
nightmare
canadian
accurate
annoying
lynch
trouble
stereoty
categ
carpenter
undoubt
bog
bomb
fur
goof
lous
mst
none
vill
##ead
##light
##yl
##aire
##win
##kn
##stal
##aling
infor
inno
bear
requ
reyn
revol
brad
asian
##sell
shad
frust
soon
##elve
alive
amate
nev
whose
vehic
hadn
cond
mupp
aff
##ume
anybody
arthur
desper
term
overrated
nights
coll
##phy
renting
attack
2004
admitt
keaton
surely
##awn
feels
flicks
jackie
contr
screenplay
curse
curious
confess
martial
larry
franco
francis
credits
##ville
formula
barbara
received
hallow
complain
opportun
numbers
engaging
swedish
chinese
impossible
99
core
cab
dress
fame
fash
jess
lor
lone
lab
ow
pun
sky
tear
tap
##ior
##vir
##ua
##mal
##ences
mood
##oud
##alia
##chant
##oop
brian
watchable
exec
doing
scor
score
##aper
whoever
tril
truth
intense
poster
##pped
loves
thinks
quote
held
ord
evening
terror
acad
borrow
##izing
wayne
titled
appro
crack
viewer
documentar
##ify
ended
childhood
lucio
compare
accord
arts
relative
indie
murphy
##ground
drag
battle
theme
demon
message
magn
successful
filmmak
model
porn
violent
broadway
succe
russell
lewis
ball
bach
cau
cind
danger
gary
jenn
mir
pen
public
ring
sant
##cious
##py
##ee
##tes
##ya
##bre
##bit
ther
##inct
mob
ange
##ita
##icated
stone
forced
shall
myster
save
chic
exist
worked
prin
whatever
grea
enc
plenty
mach
pref
faith
uns
unkn
##pping
quir
twenty
aren
using
throu
gritty
office
bela
wars
waited
track
remembered
younger
makers
bull
2007
2000
married
change
sets
buddy
relation
walk
insult
witch
snow
austen
williams
sym
install
medioc
mentioned
reminds
cowboy
extraord
business
intriguing
teacher
political
disgust
henry
dollar
birth
mst3
halloween
according
ble
cy
dun
gord
jan
jes
kore
lin
nomin
rod
sid
ske
sister
tort
##rop
##rick
##nes
##fo
##war
##´s
##atra
##asure
##ston
anne
answ
ing
bew
reall
stat
notorious
shop
likes
china
##elly
enth
meet
##antly
dev
scare
conce
showtime
intention
unless
##igned
clos
queen
imag
lea
roger
flipp
carrey
thanks
party
hardy
johnny
##ips
##ifer
##ached
smith
latest
premier
telling
americans
harris
mike
study
meaning
commer
1950s
corny
eric
attempts
fresh
repres
promising
grace
detect
refer
sleep
milit
##olds
delivers
memorable
described
dialogue
combin
wwii
voted
fortun
company
foreign
spanish
tradition
sneak
spectac
lousy
amateur
opportunity
fashion
academy
installment
gordon
ci
cit
cir
coo
cage
dor
hood
hart
ken
kim
kate
kurt
ms
mult
nast
ol
pi
pers
sis
sir
tony
tape
vac
##come
##ru
##rad
##ik
##pher
##port
##sky
##lor
##aly
##iny
mos
##ille
iss
bee
repe
##ution
libr
frost
chick
atro
soph
lov
lover
##olas
diane
plane
##anda
unint
heav
ups
ros
army
cruel
user
grad
grant
grown
##osi
gotta
fif
rental
genu
sinc
board
edge
edward
key
scream
##ift
speak
mont
matt
drew
1993
unfun
walter
visually
confused
hund
seasons
australia
century
previews
slee
memories
himself
inspired
photography
cele
figure
eastwood
revolut
alexand
discovered
melodrama
mountain
stooges
hidden
undoubtedly
vehicle
trilog
mst3k
commercial
detective
00
60s
code
gut
gard
games
iv
ja
jew
kane
lad
lion
nu
pile
pier
pitch
rout
tu
tay
von
woul
witty
##ey
##uct
##uation
##fu
##ging
##inal
##arily
##itz
invent
##vest
reve
##leman
##ado
search
##vern
##erella
sher
chill
loving
hasn
dig
conc
ages
direc
discu
directs
immed
##uses
arch
##ago
flight
terribly
##cia
maker
shorts
buck
##ension
2008
craf
ends
decide
giant
barely
events
complex
1999
common
morgan
davis
corre
listen
impression
river
jimmy
audien
market
instead
various
infam
entirely
damn
accidentally
julie
mixed
berg
sentiment
essentially
virt
involved
praise
soldier
##semble
compelling
cinematography
achie
langu
filmmakers
mediocre
discuss
21
apo
dated
gorge
hoo
jam
jus
nons
narr
om
ry
rap
rum
rend
tc
tun
ur
##ral
##rid
##rical
##ps
##lu
##gers
##ok
##za
##zen
##bed
##bur
##wy
##wolf
tho
thre
##edy
anna
anton
bell
rese
##aded
##ched
sept
hack
brut
##ette
##urd
firs
##rix
atm
##under
whenever
albert
prim
spr
sports
neil
pla
nobody
conv
muc
afra
aftern
quiet
##abeth
usa
throw
recap
warned
bob
strugg
##acy
##athan
crappy
admir
throughout
color
dougl
norris
acclaim
satire
parents
1983
laughs
theatre
studio
students
fourth
witness
avail
draw
killed
hunter
cartoons
breath
burton
elements
driven
manages
##ology
deeply
credit
sandra
deliver
aston
reminded
obsess
european
forgotten
portrayal
lifet
appeal
argent
massive
brooks
mexican
depressing
dinosa
##track
becomes
arguably
reynolds
admittedly
cinderella
unknown
quirky
vacation
genuine
immedi
24
burn
body
cash
dut
dance
hmm
ka
krist
lind
mg
mic
nut
nur
nich
nine
oz
oct
pig
ris
rach
site
tag
vinc
##rit
##por
##gosi
##ole
##zum
##bian
##wal
##kh
##erv
##ater
mock
##ility
##ste
whi
##lem
##ico
stated
hair
brand
youth
##eter
noted
shin
##ulp
chall
webs
soc
alice
##oph
grey
greet
##aine
const
convin
inte
intended
fellow
191
unc
##aked
league
##ounding
jose
jokes
crash
horrendous
offers
recog
##teen
warner
drug
absurd
##azy
tales
##poon
mario
editing
##mma
castle
lugosi
hits
parody
subm
studios
walked
typically
inside
daniel
curios
sounds
soundtrack
experiment
depict
depiction
drawn
confusing
posted
drive
painfully
value
magic
leads
parker
judge
welcome
learn
loose
initially
hamlet
cassave
andrew
universal
elizabeth
inform
cause
jennifer
angeles
chicago
extraordinary
military
unfunny
routine
infamous
tcm
afraid
mgm
aim
aven
bal
bag
bac
cus
dur
et
gal
gonna
hill
icon
jac
las
lit
mere
tight
taste
ug
viv
vote
wan
wall
##cise
##vy
##va
##nia
##tv
##yaz
##fire
##bi
##orter
##anced
##ones
##alth
##vey
revi
station
sean
haw
bron
shel
abc
france
atl
sums
altern
proof
scoo
##aud
conn
knock
intelle
unin
dislike
serie
starting
remakes
awa
##ourne
bett
hearing
sinatra
fare
bobb
surprising
2009
kidding
casting
phill
emp
puts
1989
needed
miyaz
1970s
1996
relig
sheer
teenag
indust
perfectly
erotic
stands
supposedly
iron
verh
promise
unfortunate
sunday
sundance
failure
central
shoot
adventures
turk
variety
cliches
stanwy
freddy
checked
cameron
broadcast
besides
literally
kramer
professor
wrestleman
ultimate
african
haunting
guilty
shadow
muppet
succeed
machine
answer
fortunate
nasty
hundred
trilogy
crafted
language
afternoon
douglas
nurse
recogn
curiosity
cag
cyn
dud
gy
graph
hos
il
ice
kath
kiss
kelly
lie
ment
miller
nol
pace
rome
raw
ratio
sen
sight
ugh
voy
ya
yep
ze
##iers
##ha
thief
##ises
##iled
##itor
wha
whil
##lect
##icide
sear
sees
separ
bros
brave
ship
chase
social
sup
ali
pract
spike
amount
likely
candy
##antis
dece
max
aft
unw
aged
heck
##ishing
remem
blues
uses
users
flo
thro
ground
hearted
##ogra
werewolf
travol
##izen
attended
2003
##lesh
##ified
##awa
calls
##angers
romp
double
obsc
comput
preminger
paid
##ledge
glo
1973
1979
adaptations
rule
runs
commun
silver
generous
novels
murd
exploitation
slowly
winning
winner
hunt
impressive
1930
addict
biop
biography
purp
bloody
passion
loud
portrays
emotional
criticism
modest
violence
ultra
nature
fooled
figured
mildly
virgin
griff
gangster
stinks
stinker
traveling
suspenseful
initial
particularly
thoug
voice
attract
choice
currently
venice
subtle
marvelous
idiotic
nyc
altman
baseball
errol
occasionally
stereotyp
frustr
relationship
korean
sidney
citizen
hartley
multi
sisters
library
revolution
taylor
gorgeous
immediately
greetings
cassavetes
scooby
teenagers
turkish
stanwyck
travolta
16
bin
cos
cub
cze
doo
dying
es
eat
hil
host
paper
ral
rough
send
tam
trem
trib
veter
##cula
##ram
##pse
##ez
##table
##ao
##mo
##oir
##oking
##bl
##jo
##isf
##erable
##reh
todd
beg
beach
rele
stil
##cho
sevent
thats
##verse
asked
shir
abys
chop
##rian
load
prot
proud
##ola
##illa
dozen
##ante
dean
mann
neither
acti
press
fever
##pper
adore
madonna
##itted
dism
test
directing
serv
room
blade
##nest
recall
hip
surreal
slick
accept
background
simpl
wondering
highlight
##quel
shouldn
famil
##athe
build
bugs
beautif
##othy
ideas
impro
holiday
phys
compet
scenery
1987
1982
adapted
descript
dreary
1998
1995
laughing
##wards
contro
walt
screenwr
dancing
powell
treasure
depth
dracula
deadly
trip
raised
addition
angry
shots
purple
driving
demons
fails
failed
appeared
refres
dogs
captain
##ological
pacino
vampires
propag
aspects
flawed
included
network
pieces
tedious
escap
otto
semi
ninja
execut
santa
beware
enthus
sleeper
celebr
bergman
ryan
atmos
acclaimed
lifetime
miyazaki
hosp
griffith
czech
bow
bul
cam
civ
dies
domin
dawn
esp
emma
fle
gil
gam
gue
hurt
jump
ly
lud
mes
mam
mun
male
mitch
naz
oce
pin
pink
rive
ride
ranks
uwe
##cient
##ray
##eer
##eve
##la
##gre
##mes
##down
##och
##off
##house
##wa
##orm
moore
mouse
##vies
##oma
##ading
stock
hamm
force
forem
liv
watchin
sac
chi
cher
exer
amb
justice
greg
greek
necess
##augh
outta
tran
kno
knight
##hern
poke
##oyd
##arded
govern
ador
clas
clar
clue
howard
heist
teens
upd
beca
reviewed
reviewing
remains
roh
arno
blame
crow
becaus
starred
grud
comedic
belong
littl
betty
warm
slash
miniser
seemingly
trap
boris
older
stranger
##fornia
marl
changed
holy
##well
spec
speaking
finding
decade
incom
feelings
impact
barney
calling
schlock
monkey
phen
create
matrix
harsh
1988
godf
1975
christie
michelle
insight
sounded
apr
reput
regret
presents
ident
franch
keeps
denn
turkey
influ
louis
germany
southern
dreams
million
nicely
welles
captures
actresses
inspir
footage
hotel
legendary
lampoon
##caly
flaws
##ificent
mask
packed
susan
continu
motion
dramatic
developed
thirty
outside
autob
banned
tourist
expec
leonard
appalling
goofy
dragon
mysterious
torture
flipping
audiences
sentimental
apocaly
nonsense
dutch
##stein
website
verhoe
wrestlemania
nolan
computer
biopic
ralph
refreshing
hospital
35
astr
auss
cad
ea
ga
gory
hul
hooked
july
jung
junk
led
lake
lane
mtv
nan
native
names
naked
ped
pulp
rat
rud
round
rave
vic
wick
##cl
##cil
##cur
##cra
##crow
##rin
##ech
##town
##sen
##yer
##fli
##gue
##mond
##da
##don
##hear
##worth
##ken
##kins
theory
moves
##ani
##ano
##anos
##arine
beck
ones
filming
whic
react
seld
segal
##lled
brown
##kel
chos
wors
lose
##eman
alle
prime
spring
##race
dea
##aude
outer
outra
nostal
conte
##herent
unim
##igan
gosh
knowledge
clark
horse
peo
seri
peopl
impl
##fest
awh
##usion
##assin
horrid
##ender
enjoying
thril
##ints
gross
comedian
surv
warri
carr
carry
origina
##ploitation
wondered
talents
higher
##ques
boll
boast
##aces
coun
##ibl
##ipul
classics
setting
holmes
event
hoped
putting
satisf
mater
glor
1981
1974
1972
rules
boyf
clean
##scape
theaters
theatrical
contem
ratings
##where
england
##ortune
extreme
1959
corman
collect
situation
##heim
strangely
laur
lesser
portra
frequ
previously
handful
irish
festiv
1936
1940
frankly
stunned
##zzard
assum
syd
deserved
##stru
sunsh
shocking
majority
exception
##gedy
stylish
cliched
antic
fictional
airport
stanley
sandler
streets
scared
capture
foxx
psychological
creators
fully
carlos
wilson
opened
angels
##anagh
pleasantly
songs
concerns
netfli
random
introduced
widow
twisted
flynn
matthau
matthew
private
privile
explores
misfortune
further
desperate
borrowed
documentaries
relatively
magnificent
birthday
scarecrow
conceived
sincere
ladies
jamie
september
available
joseph
ugly
atlantis
intellect
obscure
description
enthusi
hammer
foremost
exercise
arnold
miniseries
dennis
autobi
verhoeven
seldom
netflix
bh
bam
bore
bound
bourne
card
cave
ded
dere
dust
duck
dolph
eth
eli
eager
egy
gather
hous
hide
hired
hanks
jere
june
kil
khan
lum
mish
ner
nud
pas
pau
rh
race
ruth
rush
till
tick
tail
vent
via
velve
wri
yu
zu
##core
##cont
##ping
##nan
##ffe
##gas
##gain
##dam
##hal
##ban
##isa
##ata
##ena
##enstein
##orc
##ora
##org
##ilight
ish
##anic
##ingers
##stick
ancient
tobe
##itled
bean
##vement
reach
##leep
##ades
states
##cher
brid
branagh
##amo
asleep
shar
shre
safe
saving
chose
champ
wealth
sopr
##eland
princ
##olic
spa
##antino
scifi
conne
prepar
poet
unm
##allo
peck
peace
agre
quint
##aken
text
proved
twelve
twilight
awk
ready
bland
blind
blond
horro
flow
grat
groo
offensive
##idest
terry
terms
##telling
wanting
directorial
warming
guide
slap
##akest
##azine
believ
tracy
boat
boss
string
strict
##ization
earl
##force
coul
yourself
educ
##ires
hoot
enterta
endless
possess
bargain
monke
evid
accom
account
masterful
elvir
1985
##ello
fantast
adaption
1997
artist
artistic
humour
laughable
perform
interp
indul
runner
stupidest
scripted
generation
retarded
screened
fairy
ernest
viscont
worthless
turner
sucker
listening
raj
kills
hung
biased
breaking
distinct
reporter
graham
1942
valley
regular
bunny
synd
dais
magazine
turning
sweep
superbly
lacks
zombies
merchant
strongly
iii
purely
damme
checking
efforts
karlo
nicolas
pupp
julia
astaire
surfing
learned
stole
proper
philip
describes
lesbian
dealing
gripping
intrigued
oliv
awards
longest
professional
##selves
panic
gentlemen
splend
levels
focuses
immense
dubbed
arrives
overlooked
category
contrary
cabin
tears
ordinary
preface
disgusting
nominated
premiered
harrison
represents
combination
spectacular
alexander
rendition
empire
industry
frustrating
tribute
screenwriter
propaganda
civil
april
aussie
awhile
sunshine
velvet
sopranos
princess
elvira
visconti
karloff
4th
ain
aster
cook
cure
cgi
dent
dim
dude
fed
fish
flesh
gill
gain
gib
gund
hou
jun
jol
kin
kali
lan
lem
lies
lav
mile
nar
nav
nbc
pp
pg
pix
pbs
row
rick
rif
rank
rene
ritch
tel
tons
wou
wong
wolf
zone
##rd
##ium
##ique
##pir
##nal
##nam
##ti
##tin
##ties
##ls
##ui
##ument
##gie
##gent
##min
##mber
##hin
##hat
##bing
##bid
##bul
##bled
##wi
##xpect
##je
##joy
##ators
##enc
##orn
##orman
##asm
##ases
##ashing
##edu
##stre
reun
revis
##otte
anderson
washing
##esis
##uther
##iro
bright
forever
##lder
sab
chem
exorc
weakest
loss
##els
price
spy
spot
spiel
##eryl
ener
envir
enchant
mea
dee
neat
##ighty
diam
##odge
area
outd
nov
showc
faw
unreal
goi
cla
agent
##umble
qui
disa
twists
##inee
##inea
blair
##ptic
cring
##ages
##pector
##pective
flu
flor
grow
grim
commentary
surp
guinea
slaughter
absol
traff
nowh
##quis
##prise
##ibal
admire
holl
##ipes
ameri
hugh
videos
inco
versions
giv
kinds
##lessly
animal
almighty
pleased
hitler
glance
1980s
geek
critical
fuller
summed
summar
swear
sword
insip
insane
inspector
1955
danny
powers
worthy
cops
##board
eyre
mrs
listed
posts
##bbie
potentially
trio
killjoy
iran
1933
1939
singing
garbo
channels
elect
memory
1940s
drivel
demand
patient
davies
exceptional
decidedly
##brid
dumbest
samuel
airpl
billed
capital
lackaw
passed
tarantino
daring
karate
receive
scarlet
##ipped
psycho
heroes
victim
cali
costum
eighties
including
leaves
standards
chucky
disgrace
nightmar
wrestling
presentation
technically
unexpect
widely
mexico
ronald
respon
respons
##orthy
allowed
details
pulled
weren
savage
experienced
categor
##ylan
innocent
revolves
dressed
jessica
taped
scorp
shallow
prince
faithful
symb
traditional
repeat
atroc
heavy
guts
research
brutal
springs
struggle
argento
mickey
rachel
vincent
challen
society
andrews
bobby
phillips
cagney
cynical
##ographer
cuba
abysmal
controvers
ludic
riveting
pokemon
grudge
godfather
astron
chosen
boyfriend
anticip
derek
wealthy
asterix
gundam
ritchie
28
37
au
ack
aute
baker
cri
caut
dal
dave
daught
dylan
eis
fingers
ire
jar
jay
jet
jaw
ko
kub
lun
mate
meryl
nas
ost
py
pam
pity
rig
rack
rita
tack
tiny
vast
vague
wra
wag
##cr
##rich
##ev
##lie
##ye
##fic
##fight
##hur
##bast
##bird
##wo
thous
##erous
##atom
##ature
##eni
##aso
##ari
##ario
anch
anatom
toler
bei
onl
onto
##omen
##oman
whim
##oted
stal
stick
streep
##che
bri
braz
##etball
notable
shah
abb
##uri
fri
##ersh
sole
##unt
lol
loy
suit
sudd
spo
spite
spook
##rah
ensemble
##geon
dest
neigh
outing
trick
troma
##andon
convent
mummy
afte
fake
fault
union
uncle
##pest
dont
wells
cliff
horribly
anyway
quent
heather
disli
serge
##abor
image
remote
orson
ross
rogers
##ounded
awe
awes
##ushing
reader
bla
blax
blows
everyth
##aged
##ends
starters
perfe
flop
##inted
offs
offer
willis
belo
basinger
unde
coen
letter
warn
slam
carol
realized
drink
talked
steal
boom
struck
101
fami
favori
bug
mars
marsh
margar
episo
craw
craven
edited
edgar
americ
giallo
animat
animals
stuck
##atherine
entertained
masters
elvis
1984
1986
1976
amazingly
followed
jackass
contri
interview
productions
comme
commen
command
sadd
types
mainstre
moral
midler
danish
snipes
visit
vision
missing
mission
carto
sexual
lesson
hilariously
winch
##gged
irrit
batt
##lins
expos
values
hyp
duch
trailers
##zzzz
assume
##rifying
marks
countless
stopped
culture
1965
effective
##ologist
forgettable
jonathan
emotion
emotionally
apparent
football
minority
creature
charlotte
philos
photograph
spirited
palm
involving
strikes
concert
regarding
randolph
sensitive
soldiers
suspect
suffered
officer
continues
##ausible
africa
wesley
criminal
adults
treatment
##enzo
embarrassing
hayao
advertised
understood
formulaic
owes
approach
cracker
princi
encoun
prefer
bullock
jesus
ingred
intentions
images
fashioned
sophistic
jewish
pierce
sherlock
correct
hooper
astonishing
genuinely
shining
shelf
connery
voyage
whilst
searching
rememb
veteran
guest
mitchell
franchise
material
frequently
privilege
intellectual
jeremy
strictly
splendid
immensely
ppv
incoherent
insipid
lackawanna
costumes
unexpected
ludicr
ireland
ostens
sudden
22
3rd
45
50s
ara
bart
boil
bank
buster
cous
dow
dill
dah
equ
fer
fou
fate
foun
gad
gand
gate
gall
gag
hur
hust
hind
jur
kur
kol
kenn
lazy
mck
oss
ody
ple
pale
penn
rou
rice
rath
rise
ranger
rko
rangers
sie
sou
sale
soooo
suther
ts
uzum
vid
wing
wise
wwe
wyn
##rom
##rase
##iation
##pa
##eor
##val
##uit
##ugu
##fia
##gian
##mi
##ober
##ho
##wer
##wor
##ji
thurs
thunder
##erved
##atter
isab
##anth
tol
tommy
towards
##lyn
##itab
inac
ingr
beast
online
revie
##leck
italy
##icate
##ador
##adel
ster
stap
seat
##entine
bra
brig
bride
asso
sha
shore
shark
share
shaw
shines
##ioni
liar
fright
watchi
watche
chil
chair
##cked
wear
##ela
prol
spider
ame
doe
enorm
cand
meat
debbie
manipul
manhat
actin
gooding
goodness
whoa
prec
precious
feed
unp
united
claude
##umin
##umph
anyth
prog
twin
twins
rose
joh
josh
##ffy
##ffman
perry
fli
##osawa
commenting
willing
overwh
basement
charac
survi
cob
lasted
warren
orig
##000
plots
drum
wai
wave
belief
believed
finn
##ploy
tragic
tragedy
epit
partly
##owned
##bell
farce
##izes
##acious
longer
surprises
buying
attend
attending
cheer
##enson
viet
coupl
##roe
##room
player
lifeforce
##ibility
hollow
screaming
##ifies
speed
speci
##away
disappear
##ashi
ideal
schne
luis
##ivative
lloyd
hugely
definitive
creative
pax
match
harrow
harold
parent
brilliantly
miike
1978
suburb
ruin
dreck
superman
sequence
related
unfair
cannes
1956
corb
halfway
snakes
##gren
laura
topic
confl
lists
posters
triumph
winter
##ographical
freed
killing
1934
1930s
singer
distant
themes
themselves
broke
broken
qualities
grave
gerard
eleg
element
rivers
1945
hyped
patri
assassin
bunuel
syl
magical
instant
robot
cultural
1968
1967
1960
delighted
diet
medical
positively
comparison
latter
takashi
internet
internatio
unlikely
emotions
karen
millions
inspiring
discovers
landmark
carla
foolish
boogie
journal
programme
leslie
thankfully
forgot
unbelievably
henri
##aaaa
victoria
crossfire
meteor
royal
official
ordered
argue
technical
uneven
dramas
introduction
ultimately
thrillers
attracted
escape
falk
guns
recorded
cellul
squad
limits
transl
crimin
derivative
naive
honor
inept
largely
domino
sellers
advertising
village
innov
required
francisco
throug
dollars
represent
amateurish
cooper
issues
heavily
upset
fifth
garden
reveal
chilling
digital
tuned
convict
admirer
deliverance
dinosaur
burns
linda
october
cusack
hills
bronson
uninsp
brosnan
suprem
murders
modesty
attractive
shirley
service
families
mesmer
ocean
adorable
marlene
phenomen
insightful
reputation
outrage
nostalgic
dedicated
egypt
dentist
kalifornia
lavish
navy
reunion
washington
chemist
environ
diamond
airplane
scorpion
atrocity
astronaut
daughters
kubrick
thousand
abbott
quentin
margaret
mainstream
kurosawa
uzumaki
000
26
2nd
90s
aug
bs
bot
bone
bard
bak
bark
bless
bird
bene
bush
coy
cary
cath
caine
died
eh
fid
gw
gab
gung
gift
hick
jen
jake
jaded
kl
ky
ker
kings
len
lance
lund
mut
mort
nig
nation
opt
pit
pad
pear
pitt
pound
ric
rab
rates
tig
tense
vol
wend
wret
wann
wanna
yr
##cus
##rr
##rant
##rome
##rence
##iving
##pm
##tz
##sis
##lan
##fort
##face
##ault
##gir
##gate
##ds
##ded
##hed
##ways
##wise
##kie
##erie
##inch
##atel
##oug
##iles
##anis
##anny
##arter
##stone
anoth
analy
##onic
##itter
##itation
invis
bess
##omon
##omit
whoop
reb
reed
reel
revel
reign
rebel
retelling
##lected
##ota
stumble
##chy
selling
##ira
##irious
brows
forest
##ida
asp
shou
shut
shak
liber
##imo
frie
comics
saved
##uli
cham
##riate
web
log
alb
print
pride
priest
##olin
spott
amitab
ifc
destr
maniac
acto
##aph
##odo
##oney
mafia
trend
constru
fac
##ively
##orting
clo
horrific
pee
pegg
qua
##udo
diss
tea
upl
pros
##abra
remin
legu
roles
robb
readers
blo
blow
blown
cris
crude
everyday
enjo
perf
flaming
thru
gray
grinch
offering
##iance
gothic
design
designed
terri
othe
chara
charm
excel
undeni
surr
cock
##estic
slop
slice
carter
carell
carmen
minim
realise
##azz
classi
nowad
farm
bold
shortly
busey
attached
cheese
titanic
march
maria
chances
friendship
playw
edition
editor
versio
keen
kell
enterprise
endear
decides
##astern
smile
misle
miserable
eva
phant
empt
emily
##shi
satan
satir
creates
matador
featured
glim
glass
glenn
comeback
##cco
bits
delirious
1971
subl
descent
seconds
facts
mighty
contrib
walker
interes
cannibal
minded
generic
polans
treated
imaginary
imaginative
apolog
austin
roberts
location
##ucky
universe
rocks
heartwar
freaking
freeman
riding
##itsch
irre
festi
added
garfield
mencia
expensive
grabb
melville
eleph
ripo
1947
valentine
lights
hyster
hybrid
goldene
patric
desert
wooden
talkie
questions
marked
planning
leader
leading
campy
solomon
spacey
1969
cheesiest
court
subjected
##etti
caper
lacked
media
mistress
mistaken
comparing
euro
humorous
trashy
fascinated
barbra
captiv
puzz
juliet
berlin
amongst
hallmark
photographer
holds
ought
complicated
illust
illumin
crystal
wilder
provides
provoking
hamil
regarded
homicide
compelled
suffers
gentleman
fonda
massac
tender
invited
development
false
falcon
##wwww
current
racist
square
ashley
inex
barrymore
hayworth
ignore
affair
lonely
label
scores
demonstr
dangerous
##bitious
symp
blew
closet
issue
atrocious
uninterest
gradu
granted
virtual
discussion
urban
antonioni
drawing
dinosaurs
nicholas
##walk
mockument
##lemite
constantly
convincing
loosely
avenue
merely
wallace
bettie
religious
succeeds
ille
separate
december
begotten
stilted
atmosph
rohmer
belongs
slashers
caddy
warrior
contempor
##heimer
nudity
pauly
awkward
indulgent
olivier
gibson
junior
rififi
spielberg
nowhere
##quisite
scarlett
nightmares
auteur
caution
brazil
neighbor
disliked
beloved
contrived
philosoph
encounter
ingredient
sophisticated
ostensibly
gandhi
odys
thursday
inaccur
associ
meatball
manhattan
overwhel
conflict
freedom
environment
lundgren
amitabh
destroy
leguiz
polanski
27
3000
ai
az
ax
aar
bare
bibl
cel
dil
dum
dating
dyn
ealing
elder
eastern
fis
fon
fay
food
fict
field
fbi
gor
ginger
han
hes
hang
hitting
i´
ira
izzard
kite
kaz
link
mast
mick
mason
nem
nel
nail
od
ove
pir
pse
punk
pushing
sic
soo
sill
sween
tie
tas
til
tall
table
tempt
vin
vance
wet
wide
wake
wiz
yawn
zor
##can
##cop
##cett
##rent
##ros
##iko
##pin
##pid
##pola
##ef
##eur
##via
##nin
##nst
##now
##tt
##len
##lar
##law
##uary
##fer
##fun
##ae
##aver
##gor
##mart
##dan
##dom
##dad
##dog
##over
##hold
##bod
##bone
##bind
##boil
##bury
##xual
##isand
##iscent
##ieu
##ened
##orous
##asing
##ils
##ila
##iling
##ilio
istan
##viet
##sters
##ona
toy
tox
inse
invest
file
whod
reh
rex
reli
##leans
it´s
anders
wast
##ices
##ads
sti
stom
stating
stret
##chan
sel
section
sebast
##ghetti
hap
hagg
habit
forty
##idy
##iders
##etch
notch
shr
shep
abomin
##ima
##imate
myers
myth
saint
sappy
chor
chup
exh
exquisite
soviet
lovers
logic
suicide
alas
albe
pry
butch
dod
door
dolemite
meg
##aint
actio
goodnight
seek
seein
dia
##apo
plo
timothy
##isti
trust
trite
conrad
preach
fee
feast
##hero
poign
poetic
##oya
unor
unple
timeless
donald
ado
adored
adrian
madhur
claire
hors
##ums
que
quin
quit
##berl
##uder
height
display
disjo
directo
##essa
##isha
##ishop
twe
remain
orleans
robo
arr
blank
cron
##agn
flav
##osis
commentators
overly
##ciating
nightbre
foster
guard
carn
acqu
wonde
wonders
otherwise
##plays
partner
##iah
##quer
farscape
boot
boorman
struct
absolutel
johnson
probab
someth
sometime
chee
marri
marine
approp
lowe
herman
hoffman
kee
screw
entered
reasonably
colin
misunder
writes
consist
conspir
monroe
lucy
happening
emilio
##sons
hopper
creating
harvey
paran
glam
mixt
1977
1991
1990s
blackad
critters
cert
superhero
content
entitled
morris
mindless
yellow
engross
swim
retur
retired
1957
britain
examples
excit
excru
attempted
avo
visited
explo
explan
coppola
experim
apna
eyed
locations
tribe
wins
masterpie
portugu
freak
ridden
hunters
irwin
normal
distrib
garner
repet
report
qualify
genres
eleven
memoir
sorts
goldie
duke
dukes
ida
numerous
assault
cheaply
deserve
fallen
falling
skill
skip
announ
italians
helen
##oulies
heads
headed
ghoulies
##viou
styl
babys
infer
lamest
sleazy
jules
judy
historically
target
dario
scottish
barbet
nicole
streisand
scariest
criticize
profound
##ocative
astounding
bern
porno
creatures
helps
shakespe
learning
losing
philo
##atsi
columbia
aliens
essay
nigh
palma
##owski
fighter
fighting
includes
sigh
vh1
lawrence
provided
casper
##hhh
praised
frontier
##ificant
suffer
officially
fatal
touches
focus
autom
haunted
suggests
##iffer
ashamed
divor
becoming
pulls
guilt
domestic
ignor
temple
tempest
bears
revolt
nevsky
muppets
collabor
mirror
##breaking
disgusted
skept
imagery
leaving
perspective
sirk
commercials
ivan
pierre
bucks
virtually
achievement
colorful
nichol
risk
brando
information
aimed
jacquel
alternate
alternative
ironic
hundreds
gym
graphics
kathy
mental
community
silverman
purpose
eaten
##rehens
simplistic
mamet
necessary
government
apocalyptic
hulk
jungle
nancy
wicked
alleged
unimagin
portrait
sydney
autobiography
eagerly
champion
spaghetti
gratuit
groove
accompl
syndrome
sweeping
lemmon
fawcett
response
controversial
acknow
naschy
crawford
irritating
duchov
ludicrous
huston
hindi
sieg
sutherland
wynors
ingrid
vietnam
schneider
elegant
patriot
celluloid
uninspired
egyptian
wretched
wannab
invisible
whoopi
browsing
constructed
reminiscent
robbins
flamingos
playwright
empty
heartwarming
ripoff
hysterical
goldeneye
patricia
massacre
sympath
uninteresting
illegal
odyssey
leguizamo
nemesis
pseudo
sweeney
istanbul
whodun
poignant
unpleas
disjointed
nightbreed
excruciating
jacqueline
23
29
34
5th
86
ay
ak
ape
bath
bald
banks
cere
cun
cine
cia
cents
cbs
caus
catherine
dw
dall
dare
ec
eb
eug
fit
fass
fury
golf
hem
hook
hig
hare
hedy
henson
jed
jord
kom
kay
kir
kies
kud
lay
lill
lite
lily
lying
linc
lisa
ming
mul
mall
member
n6
nom
nam
nathan
niro
os
omen
pond
pian
push
rot
rook
rour
rival
sg
sink
sought
soup
sara
sedu
tut
tier
tension
uh
vig
vio
wed
woo
wook
zell
##ries
##ikes
##pson
##van
##side
##low
##lig
##yf
##qatsi
##uf
##ued
##fan
##full
##aiss
##gen
##gid
##do
##ove
##ooth
##hen
##buck
##bitsch
##wling
##water
##ku
##jar
##just
##jack
##isc
##erably
thea
##iner
##ency
##enheimer
moody
mouth
##oura
##asi
isra
##ingu
##arn
##arian
##stage
ani
toil
##itel
inh
beau
##omed
##omic
##vester
ree
reas
resemble
##lection
wasting
##icz
##icit
##icus
##esc
stack
stall
stale
##chino
##llen
##ented
##ayed
##gher
haz
hawn
hailed
##oose
brash
brady
forgi
##iding
##eta
##seum
##sequ
shan
shoul
##ione
##ionist
liking
##cel
ability
watson
mys
##urally
##urred
fra
frag
frien
watches
sabr
saga
chess
chron
##erset
firm
wee
weir
webb
soyl
##the
worn
worl
worry
##ements
##elor
alter
alain
##oln
somerset
##opal
##raiser
amy
amen
ambitious
justin
greta
dove
envy
meh
decept
devi
mani
mand
manna
manner
goods
diagn
scot
scand
greatly
##appy
places
vegas
mail
macy
macle
nove
noel
noble
##anded
##andro
conno
prep
prej
prepo
museum
faul
faced
poe
unse
unne
unhing
unfor
##igo
##iginal
##ppie
goin
##orted
madness
clun
cloth
claud
horiz
pec
##itten
##ondo
quot
heat
prove
reme
leos
roomm
funer
awar
awak
awake
arist
joel
blat
cried
crimes
crush
croc
everywhere
##agan
perfo
flic
flock
fluff
gromit
thoughtful
comedians
belush
recre
goth
desire
##pert
##peror
terr
terrib
basil
basek
cole
coinc
herein
expectation
lethal
cars
carax
minus
##ogan
underground
wax
prett
wonderfu
##cules
travest
epi
border
hardcore
farrah
steals
stella
steaming
booth
strang
strangers
##aced
awfully
produce
atten
workers
##form
##forward
marc
marg
marion
marath
edin
eddy
edison
lower
lowest
hercules
views
documenta
##weger
colman
colors
speech
##awned
secur
decline
budd
budge
incident
tyler
cinemas
smoking
impres
scho
monog
lubitsch
luchino
##woods
##umbling
phone
norman
happily
emer
employ
emperor
##ivity
compreh
extr
##shan
##shack
##shell
accused
brilliance
pair
matinee
featur
parr
elite
contained
georg
adapta
dreyf
1994
##vision
performa
studied
studying
housewi
household
superior
relate
relax
cannon
sheen
sheets
commits
committed
##cover
scriptwr
pete
engl
retro
insom
1954
curt
couples
snl
snake
collector
imagination
visiting
misses
explos
hellraiser
cuts
picking
pickford
depart
##ucker
##queen
televisi
homeless
lessons
##rett
rocky
potboil
trier
triang
killers
##gger
opinions
norma
promis
promised
paulie
20th
result
owner
riot
1943
1944
pains
register
hyper
goldsw
frankie
lars
patrick
syst
audi
audio
##struck
oddity
returned
planned
vanc
exceptionally
camping
##issa
keeping
deny
denis
center
solo
turgid
refers
reflect
sixth
sixties
oscars
damned
miles
femin
alec
##ovich
thompson
calib
philadel
describing
stunningly
scientists
combine
costello
coward
closely
cleverly
lambert
palace
189
grier
strip
concerning
travels
sidewalk
quickie
quickly
crypt
buffs
lonesome
pilots
ramones
grandm
observ
cases
oppos
##clear
praising
renoir
renowned
renaiss
beatles
canada
homage
bothered
unusually
dickens
bringing
bedroom
voight
dolls
##born
advice
advance
brooklyn
discount
thrilling
romania
university
bonnie
##atchable
macb
flying
racism
limited
1927
lucas
divided
productio
idiot
cube
##cessary
inev
armand
embarrassed
embarrassment
ignored
overlong
appalled
bogart
affleck
punch
existence
jesse
unintention
nuclear
tube
inventive
searched
rumble
##burgh
antonio
breatht
hmmm
kahn
##zumi
##walker
submarine
depicting
avenger
galax
awaited
romeo
practice
unwatchable
groundbreaking
stereotypical
tremendous
dismiss
accepted
beautifu
executive
gilmore
necessarily
clarify
crowd
incomp
apocalypse
##craft
springer
surviv
boasts
satisfying
venture
shrek
prepared
agreed
believable
educational
possessed
monkeys
interpre
daisies
puppet
gained
energy
enchanted
showcases
cringe
surpri
responsible
eisenstein
vaguely
anchors
solely
loyal
blaxploitation
exposure
photographed
crackerjack
princip
gadget
jurass
kenneth
rathbone
tsui
staple
paxton
dietrich
chemistry
august
bsg
bakshi
barker
nowadays
sublime
elephant
illuminated
demonstrates
atmosphere
caddyshack
ingredients
meatballs
aaron
wizard
zorro
##function
##binder
albeit
pryor
unoriginal
robocop
marriage
misunderst
mixture
blackadder
avoided
explanation
tribeca
portuguese
repetitive
##rehensible
unimaginative
gratuitous
wynorski
unpleasant
baldwin
dallas
ebay
eugene
kudos
lincoln
n64
rourke
zellweger
israel
sabrina
soylent
preposter
unnecessary
unhinged
belushi
baseketball
travesty
housewife
goldsworthy
renaissance
33
36
6th
75
ald
aus
apt
aime
bum
bend
bible
bah
bishop
dict
dys
dante
dashing
eg
eag
ebert
echo
ecl
fel
gas
gol
gig
hark
hodge
htt
ich
jum
kra
kans
kline
koya
lil
lic
lur
lass
laz
lens
leland
mama
maste
maugh
ned
oc
ov
pc
pere
pim
pint
pony
rag
raz
riv
rati
rural
sly
sally
sig
sond
sour
tat
tout
tree
tank
um
ust
wy
wol
wine
wire
wished
yor
zan
zoe
##car
##coon
##rough
##rien
##rino
##iat
##eg
##ele
##nat
##niac
##tw
##tic
##lers
##lus
##yc
##uous
##uity
##gut
##gment
##gio
##mur
##master
##mons
##dow
##oll
##zes
##zog
##hl
##bow
##bers
##wan
##kan
##kner
##xim
##xious
##ju
##jay
##jandro
thur
thri
thus
thos
##isi
##isse
##isons
theate
##ini
##inel
##inarily
##atary
##enberg
mol
mosc
##ouver
##ouri
##aser
##asse
##anc
##ances
##ancho
##eds
##eder
##ingo
##aries
##star
ano
##rep
##reen
##rest
##rell
tod
##ito
##itable
##itude
##alo
inn
inher
bea
bein
begu
fill
##omy
##omer
reached
##leton
itv
##icious
##icles
##ada
stag
##cha
##chak
seaso
##llo
##ento
hazzard
brien
brav
##ami
asia
nothi
nothin
shi
shy
shem
shape
##imm
witho
frame
##usty
sail
##uls
##ulf
##ulse
chur
choose
exists
atomic
weight
weap
##ems
sue
supe
##earer
alot
pray
##opa
##opath
spra
spok
spawned
whatso
ama
butt
butter
##bles
engin
ente
candle
mead
##antic
deg
dele
deanna
mans
manage
manga
nee
neve
actua
diffe
scat
scree
scale
scors
##oda
##odie
##odding
plus
##aux
vein
mai
##andering
convers
congo
sayin
intent
intol
intro
prequel
190
mum
afi
faces
poin
poll
unh
unrem
uncon
goe
##ortion
##gino
cli
clay
clim
clock
clip
clair
cloud
horri
##itte
##umar
anyt
anyo
anymore
quant
quarter
disp
displays
directly
##essione
##ishment
process
##abar
##ablish
spoiled
twent
rema
remade
orien
orph
root
rolling
roeg
awfu
ard
aroun
blob
cran
crud
##agon
##osexual
##ffer
##negut
enjoys
flag
thrown
granny
##osh
thoughts
offbe
horrors
gotten
bigfo
overact
bask
basis
##cially
charism
hippie
cohen
guar
toole
slo
slim
caric
cares
origi
realism
drop
##phia
newly
newsp
underwor
underdog
backwoods
##plic
traum
trapped
steel
boston
strength
##izer
##acle
longtime
buil
##ressive
##fork
titl
titles
marie
marry
craz
##iba
herzog
suchet
##ifting
##ifying
##wegian
videot
colon
musi
possib
defies
define
miscast
holoc
baron
barman
disappoin
consid
monsters
luke
doug
downs
pho
phrase
norwegian
obtain
object
woma
lately
##show
hopkins
definition
creation
rights
haru
harm
parad
param
parade
gloss
glowing
glorious
##anky
gods
subj
subst
hollyw
persons
rupert
##oteur
1992
boyer
humph
humans
laughably
factor
critique
writte
certa
studi
doubts
histo
despise
india
mormon
morbid
silence
##nedy
minds
peterson
telev
sway
switch
1951
1958
polish
dana
corrid
corpor
murray
redempt
sni
snipp
sounding
dirt
imagining
incredib
standing
expert
strangest
apar
cutting
topical
##boat
funnier
##ommel
televised
jameson
tomato
rocked
rocket
trivia
raising
irving
1931
catching
breed
##liners
angst
vera
woe
exposed
burning
buried
martino
deathtra
melissa
melancho
resident
recomme
wishing
driver
demille
demented
paint
lighting
hyde
vijay
duo
idol
##zzy
daily
##rified
gems
oddly
skin
skull
sketch
shockingly
appearance
especia
anni
annie
straightforward
campbell
baff
denver
denying
centered
##maid
adventur
hitchco
vargas
variation
infuri
zombi
deepa
merit
mermaid
passes
tipping
ridicul
mcl
mcqueen
fascination
alejandro
barbie
milligan
nickel
receiving
##ocol
intruder
particula
psychiat
himm
creator
ahh
calle
calig
naturally
loses
angela
boob
cecil
sentinel
torn
ouch
moonstruck
moonwalker
alienate
essence
essential
lamas
stayed
rainy
striking
girlfight
sarandon
ww2
buffy
lawyer
ramin
anthology
northfork
observed
politically
chapter
popularity
maligned
maltin
crossing
discovery
metal
packs
panned
spends
spending
finishing
presenting
fata
splatter
advise
rollin
disclaim
flatliners
touched
esteve
establish
thirteen
##atcher
outset
kicks
signif
##nnnn
stooge
sematary
subtit
prisoners
1928
1920s
docum
detailed
hones
softcore
serials
exploration
hatred
arrived
flashdance
##osaur
sitcoms
experiences
require
frustrated
termin
control
francois
complaints
corelli
lorre
execution
approached
bachelor
mysteries
existenz
unsett
insulted
witchery
snowman
bleak
january
rodri
rodney
statement
closing
freshman
references
circ
circle
cooley
dorothy
kennedy
##rupt
##pheric
repeated
cruelty
fifty
fifteen
alexandra
mountains
gardens
vonnegut
correction
listener
narrative
omg
primarily
witnessed
obsessed
obsession
hmmmm
nutshell
rachael
tagline
vincenzo
challeng
convinced
uncut
bagdad
vivah
recognize
graphic
glover
stereotypes
multiple
cosm
competition
executed
celebrity
atmospheric
bullet
hurts
lyrical
ambig
gregory
transp
updated
identity
influence
vicious
##heart
beckham
reaction
context
implausible
laurence
festiva
enthusiast
ethel
elias
hideous
kilmer
reaches
sharp
connect
connection
quintet
entertai
monkees
evidently
fantastically
cookie
gilliam
renee
##bidden
saboteur
exorcist
exorcism
unrealistic
florida
absolu
hughes
iranian
symbol
challenge
dalm
pyun
tacky
anatomie
stalker
spooky
awesom
perfection
saddest
winchester
dillon
dahmer
gags
kolchak
ossessione
isabelle
prolific
enormous
surviving
finnish
epitome
harrowing
sylvester
innovative
revealed
mesmerizing
phenomenon
benef
coyote
catholic
fido
kyle
padrino
pearl
pounds
rabbit
tiger
yrs
aspiring
##uliar
spotted
uplifting
undeniably
sloppy
endearing
misleading
glimpse
contribution
apologize
grabbed
puzzle
labeled
mockumentary
fisher
hesit
nelson
toxic
stretch
sebastian
haggard
abomination
chorus
chupac
horses
flavia
conspiracy
paranor
engrossing
distribut
divorce
collaboration
skeptical
accomplished
sympathetic
whodunit
fassbinder
jordan
kiesl
toilet
shangh
mehta
mandolin
diagnosis
connoisse
prejud
faulkner
unseen
unforget
peculiar
aristoc
marathon
edinburgh
buddies
monogram
dreyfuss
insomniac
vancouver
philadelphia
grandmother
opposite
macbeth
breathtaking
jurassic
misunderstood
preposterous
http
kansas
koyaanis
pintil
rivals
touted
thurman
beguiled
bravo
weapon
sprawling
spoken
whatsoever
scorsese
oriented
bigfoot
newspaper
deathtrap
melancholy
disclaimer
estevez
73
79
85
91
ari
aard
bay
bav
bang
boun
cul
cum
cav
cky
cup
dul
dood
dry
dien
daw
dash
dane
drib
darr
ein
eri
eating
egg
eats
etern
fitting
fitz
gere
gus
gif
gopal
gimm
hk
hend
hint
hane
hates
hann
hogan
iq
iris
jorg
jazz
jodie
kan
kon
koon
kann
kok
ler
lomb
lana
lommel
mp
mau
mig
math
mash
mord
melt
nay
nint
niel
nuff
pm
pid
pion
pap
pants
piti
podge
rant
rav
roth
rape
rising
rotten
sr
sf
sj
sce
sate
sna
tm
tart
tast
tous
tame
tip
tash
tang
tnt
tax
telly
umm
ufo
upper
va
vil
vign
wu
ward
wounded
yul
yak
yash
yikes
zent
zato
##cies
##camp
##rate
##riel
##royd
##ipe
##pb
##pan
##psy
##pino
##eu
##vyn
##nant
##nap
##tore
##sling
##leng
##ym
##yon
##yad
##yrin
##uall
##fi
##fly
##fter
##gle
##gere
##gob
##mar
##mull
##mings
##mund
##dr
##dled
##oqu
##zo
##zilla
##hard
##hanger
##bie
##bat
##bourne
##bgob
##wing
##with
##wick
##ware
##woman
##kno
##12
##xes
##jat
##´t
thie
##erce
##erun
thesis
##inent
##inian
##iem
##atory
##atum
##enced
##enix
##oral
##oria
moan
mode
##asy
##asion
oft
##ars
##arin
##arious
##arians
##arshan
##sta
tow
tool
tower
##alie
##alle
ingl
beow
beats
whol
revers
##leb
##lein
##otely
ita
##icion
##icol
##esh
stard
##chi
##char
##chio
sev
seve
seuss
##utter
##ente
hau
##ooke
bril
brow
brun
bryn
forbidden
##idly
##idel
##idence
##eret
##ety
asking
asks
shat
shor
shag
abandon
withou
withers
##ghter
frog
frail
watcher
comfort
sai
saura
saints
chen
chay
chand
chab
chock
chiller
chains
##rip
athe
atkin
weiss
sud
alco
alba
prc
prod
prote
##olia
##opatra
spain
spark
spots
##rap
##racy
amber
amused
amanda
doct
defe
degre
mandy
neo
nell
seei
seeking
dif
diaz
sca
sco
scan
scal
scien
scoop
plat
plausible
plodding
areas
##ista
outline
tru
trie
trome
tramp
noise
##andark
congr
concent
shower
##ateful
19th
mudd
poem
unl
unli
unspe
uncom
##ardieu
##ppel
##ppert
gov
##inkle
ada
adap
madison
madsen
clive
clum
clara
##inda
agg
aging
agents
agai
##uman
##uming
fanatic
howell
howling
anywhere
hee
disbel
tee
teamed
##essential
##ichi
proc
proje
serio
sergio
imit
imper
reviewe
remotely
lean
lect
roach
rosem
aro
arty
jos
joking
joined
gett
blast
blend
blac
cru
everyon
##asses
##agraph
horrend
##enda
##nell
starr
stark
starri
starew
starrin
stargate
looki
##taine
##mann
fla
grief
grateful
##oses
offered
commenter
commenters
recyc
##tell
charge
betw
wante
exceed
undis
undes
covers
letters
##estrian
fires
fierce
gulli
slack
slum
carole
befor
minu
realm
realised
drunk
##phas
absor
undercover
simila
finan
finale
##pling
##ploit
interestin
wonderland
trave
trains
classy
classes
oldboy
hardware
highest
stefan
##point
stron
stranded
believes
famo
beginni
someti
somethi
shorty
bubb
attor
##formed
##ostrom
chang
channe
changi
chaney
changing
coup
couch
appl
##roit
craig
edit
edith
edgy
herself
viewe
hobgob
##avier
entert
enters
huppert
##weight
endured
colour
spell
kidnap
disapp
seco
secon
decades
inclin
musl
##acher
defi
characte
smell
smooth
miserably
giants
impr
laughter
barn
barjat
anima
animate
consists
schum
schrad
schedu
monte
almod
lux
lupino
eval
doub
phon
nord
norther
obno
obviou
emphas
##ivid
##shot
accent
accents
crea
pairing
actioner
mates
mature
matte
featu
hari
harvest
para
parado
paragraph
pointed
gla
glory
godzilla
bitter
gein
geor
geez
geisha
adaptati
adaptatio
yeti
christina
simpsons
boyle
cleopatra
##scap
artful
factors
criti
critically
performed
superfic
supernat
sequences
honesty
reluct
unfam
unfort
walsh
walmart
entir
sheba
indians
##nton
commit
moro
summe
peters
swan
swit
swift
insign
1952
pola
polar
screener
corner
corrupt
error
ernst
redund
trepid
performanc
visits
tenant
tenacious
explore
exploit
explains
copies
experts
cutter
picky
pickup
laid
laun
tops
depardieu
sexually
drab
drags
characterization
tomb
confusion
##retation
potem
triad
tripe
winn
##ksen
portman
##ographic
romanti
freleng
handed
1938
1937
1932
bates
cats
catal
breaker
##lines
storm
veron
havi
promot
promoted
kingdom
expose
burrough
broom
quali
grainy
purport
unfortunatel
resist
elev
especial
members
ripped
1949
1948
demi
valer
pops
popul
##inov
duv
duped
presence
guessing
idioc
messiah
frankenstein
posit
bloods
recommendation
largo
frances
patter
assign
assigned
##strong
##onym
skits
sunny
shocker
talki
deter
detroit
priyad
vanity
vanessa
##inski
instinct
campa
##ission
effe
difficul
centers
turne
spacecamp
swept
useless
filmmaking
1963
babe
favourites
sammo
predicta
dogtown
##ettes
manager
capra
lackl
lacking
11th
judging
neglected
comparisons
murdered
tiff
credited
##heads
europa
##meister
historic
damon
darling
movement
sanders
thornton
##ovan
##ovsky
welsh
scarce
scarface
captured
foxes
julian
##coming
##combe
##obic
mixes
psychopath
husbands
porter
footpr
singleton
hallways
natural
natalie
rips
jerk
loser
landscape
debuted
ridiculously
wilde
weakness
russia
dialogues
combat
combines
embar
13th
lamarr
involves
likable
likened
eighth
concerned
remarks
sidek
wwf
boredom
rambo
wildly
teaches
appreciated
futur
literary
##hhhh
forgive
portrayed
votes
canadians
handsome
randy
susann
spoofs
accuracy
##sembl
##sembled
continue
appealing
presented
fondly
fondness
andreas
##borough
motiv
troubled
advanced
companion
introduces
ultimatum
##odeon
thrilled
sweden
romanian
depressed
##www
macmur
focusing
kicked
racing
venom
claims
lucian
lucille
visuals
apartment
suggested
docume
divine
producti
marvelously
##enzie
spinal
armored
armstrong
dubious
mccoy
mccool
misfits
eliza
stereotype
bogus
bombed
goofs
requires
condu
desperately
admitted
contrast
complained
dresser
lorenzo
labyrin
punishment
borrows
approxim
magnolia
dangerously
dangerfield
korea
##ropa
bewild
conceiv
referred
sleeping
spectacle
doris
piper
##rukh
chicks
rosie
rosen
inventor
invented
chills
concur
achieve
achieved
21st
tunes
thread
resear
brutally
struggling
astonished
kristoff
octop
risques
drugs
balanced
bacall
ettore
iconic
viva
connor
religion
ironically
dudiko
gypsy
zeal
zeppel
braveheart
practically
floating
##leship
relationships
roughly
sends
relea
seventies
loads
protagon
improvement
physically
escaped
celebration
jumping
nazi
pinjar
cherish
classe
updating
species
inspirational
continuing
pedestrian
rudy
##hearted
beckins
deaf
warriors
satisfied
assumed
assuming
fictionalized
scarecrows
sincerely
enthusiastic
autobiographical
bhandark
dusty
duckling
lumet
mishima
rushed
tickets
zucco
bridges
shrew
safely
pecker
quintessential
blonde
flower
slapstick
evidence
hungary
puppets
pixar
rowan
enchanting
showcase
traffic
traffik
receives
california
anticipated
luna
pamela
wrapped
##fighter
##birds
anatomy
shahrukh
conventional
cliffhanger
aweigh
drinks
marshall
animatrix
battleship
boiled
cousin
thunderbirds
seattle
sharky
frightening
wearing
manipulative
suburbia
foolishly
journalist
criminally
representation
supreme
outrageous
gabriel
option
##girls
besson
rebels
liberal
logical
album
quaid
surrounding
minimal
kells
phantasm
satirical
captivating
illustr
hamilton
inexplic
contemporary
philosophical
inaccurate
overwhelming
destroyed
biblical
fontaine
i´m
iraq
tempted
investig
stomach
dodgy
preachy
adoles
queens
quinn
arrog
cronenberg
carnosaur
experiments
memoirs
announced
allegedly
acknowled
duchovny
wannabe
caused
jedi
komodo
mingh
rookie
wedding
reeves
resembles
stallone
chronicles
amenabar
prepare
clothes
quotes
roommate
funeral
awakening
attenborough
speechless
triangle
promisingly
system
bedrooms
unintentionally
galaxy
incomprehensible
interpreted
principal
##functional
dysfunctional
maugham
ponyo
razor
ustinov
zoey
##dowell
moscow
buttgere
degree
mansfield
unhappy
orphan
ardent
offbeat
underworld
videotape
phoenix
haruhi
paramount
humphrey
corridors
redemption
sniper
tomatoes
nickelodeon
himmel
circum
symbolism
chupacabra
paranormal
kieslowski
shanghai
unforgettable
koyaanisqatsi
erika
gimmick
haneke
koontz
kannath
lombard
pidgeon
pitiful
sjostrom
zentropa
beowulf
brynner
weissmull
alcoh
degrees
tromeo
congrat
muddled
recycled
gulliver
hobgoblins
inclined
barjatya
northern
obnoxious
burroughs
idiocracy
priyadarshan
footprints
macmurray
labyrinth
approximately
bhandarkar
buttgereit
08
3d
31
48
42
54
64
65
66
78
74
7th
88
82
agh
aid
ace
aunt
bent
bust
bour
bree
bench
bali
bender
brett
cg
cd
cen
cly
cact
cens
culp
dj
das
dol
dak
dense
dung
dope
durb
daugh
eith
econ
ego
eko
eerie
fx
fist
fath
fero
fathe
gle
gable
gav
gamer
gersh
hm
hanna
iz
ian
jor
jame
jury
kor
kas
kent
kam
kel
kau
kris
kitty
katherine
kapo
lt
lap
lans
lili
lush
lured
mra
map
muth
ns
nad
nun
nap
nort
nak
nif
nash
nurs
oo
pic
poo
pant
pand
pfe
pia
piz
pool
pub
pino
rit
rut
rol
rien
rio
rama
range
rathe
rerun
sore
sile
siz
sons
tes
tone
tess
tint
tied
tiv
taught
tai
uz
ull
uma
ulli
vl
vow
vary
vien
vip
vier
vene
voc
vipul
wb
wis
wen
wart
wakes
yah
yarn
zod
zab
zeta
£1
##cie
##cure
##castic
##czy
##corn
##rie
##ras
##rall
##rica
##iable
##eon
##eal
##vres
##nic
##nast
##named
##tar
##tch
##tight
##trow
##tigo
##si
##sin
##say
##sman
##lon
##lum
##lton
##lusion
##yr
##yman
##yama
##uo
##uil
##uizer
##fl
##fy
##fil
##fast
##fore
##foe
##aam
##gom
##gia
##gro
##gles
##gang
##gence
##gments
##math
##mash
##mott
##maker
##obs
##zel
##zman
##zna
##zurs
##zhin
##zona
##hol
##hip
##bu
##book
##bus
##bath
##bane
##bling
##wed
##won
##wone
##kor
##kers
##kher
##kata
##10
##xi
##44
##jah
##23
thaw
##eris
##erve
##eric
thei
##ination
##inity
##inness
##ieth
##atures
##atics
##atians
##enos
##oric
##orde
##orrow
moo
mond
mone
momma
##ouch
##asco
##ilian
##ilway
isol
##anza
##ingle
##aro
##aring
##sti
##sto
anot
anand
##lying
##iters
##itative
##itzy
##itute
##itko
##alog
ince
inane
bete
begi
files
##omondo
wher
whit
whom
whir
whale
whipped
rein
reid
repl
rebe
reward
reese
respe
replay
reba
reiser
resembl
itch
items
andaz
washed
##ician
##iceman
##esp
##esar
##add
stood
stays
stiller
staling
seq
seth
select
selected
seym
##utt
##uts
##uto
##uted
##utes
##utton
##cts
hail
haus
hammy
haha
##ooo
##verb
##verted
brass
brooke
forth
forum
forsy
yout
##aman
##amboat
asc
asyl
assembled
notes
notew
notwith
shed
shol
shap
shod
shook
shab
shine
shift
shearer
lip
liu
lizz
lips
abd
abound
abbe
##kee
##kest
myr
##urbs
frid
friz
fritz
frenc
##terdam
watchers
comi
saf
sao
saves
##ulate
ching
chong
chest
chip
churn
chief
chases
chocol
exag
examp
exiting
exotic
##ria
##rig
ator
atte
weber
soci
soder
socc
lock
lope
logan
loaded
locked
##eme
##emic
sull
sugar
suzumi
##elic
##elope
als
alar
alist
alley
prolog
##olo
##olved
allan
##opted
spi
spit
sport
sphe
spins
spaces
whats
##ract
##rack
amus
amants
amicus
butcher
grem
greedy
eno
enig
cance
canyon
meas
mech
meyer
##anti
##anted
deod
manch
manos
nea
acte
acts
actres
goody
goodby
bye
##astly
diary
dipl
divers
diana
diverse
scie
scola
greater
##apore
##itect
##iteurs
##odile
plight
plag
plung
plunk
plague
timberl
##aum
therefore
##ssett
##mented
outland
outlaw
maver
mazurs
tras
trul
troy
trunk
##ande
##ando
##andra
conj
conan
constr
consequ
knack
knott
intend
prey
preston
precise
fea
feet
feather
##ateboard
##venile
##venient
affe
aficion
fable
poison
poker
##ives
unre
unit
unaw
unner
unrel
unborn
##igree
##igner
##igold
##igrant
gover
goals
gosling
gossett
##ortal
donner
donovan
ade
advis
adject
adela
adrien
adopted
madden
storytelling
aftermath
clon
clone
click
clif
claus
horrib
horrifying
pepe
peak
##ittingly
agr
##umn
fanci
howe
thinki
thinkin
anyon
##ondition
quo
quasi
##bera
##bergh
##berge
##udrama
##ako
heh
heston
heels
hepb
dise
dish
disk
disple
discon
##ishingly
beco
proce
proced
proverb
serum
served
serves
##aby
wron
wrinkle
##feld
peoples
orch
orca
lef
leather
levin
levy
rober
roots
awf
##uso
armed
arms
##ples
jox
gettin
blu
bloo
blake
bloch
blunt
blurred
crook
cranky
##agno
##aglen
usua
##endo
##ffiti
staring
##ueger
couldnt
gru
gro
grou
gras
grind
grish
##oser
##oshi
offended
commentator
belgian
recon
recover
recipe
dese
territ
terrifying
overd
bashing
othello
##cier
betwe
surpr
fog
##rise
##riskie
coc
cove
coach
cobb
heretic
expects
expectin
expectatio
letdown
fiasco
warns
guinness
sla
slipped
sluizer
carly
carne
carson
carlin
carrad
caruso
acro
acade
befo
favo
minnie
minnes
realisti
origins
drill
drove
##ogical
abso
absence
##kedown
newcombe
waco
backwards
fina
wonderf
trai
traci
classify
classified
partially
bori
borin
excellen
highs
highway
farrel
maki
makin
makings
steer
steamboat
##getic
##izu
##izoph
##prised
##prises
alwa
alway
dvds
johnnie
##atha
produces
longoria
earned
altho
althou
favorit
buzz
attem
chec
cheech
##ensed
worker
margin
marries
margher
marigold
changes
##roll
##roeder
players
edmund
##ibli
herbert
hokey
##aves
versus
keith
keys
keira
sett
speck
spelled
kidman
kiddie
incor
incon
incre
possi
tyra
##ashbuck
deft
defiant
sma
mister
amazes
impre
imperson
impulse
releasing
##dermott
barrel
animator
schr
sche
schmal
schizoph
schroeder
mona
monty
monstr
##anged
childish
almo
luzhin
roma
evan
evang
evocative
downright
downtown
happiness
composed
composer
wasnt
access
entertaini
entertainin
defined
defines
definately
definitel
creak
paci
scenario
##ahan
harr
harv
harbor
harlem
harlow
masterfully
paralle
elm
elicit
eloqu
godard
needless
##ella
worlds
##orda
##otta
##otting
migh
delive
delig
gee
subspe
adapting
descend
rug
rub
rugg
rukh
cleo
##nais
artic
artsy
blackwater
jackal
jackni
michigan
micheal
studies
suppo
agreeable
rela
relat
relic
relent
relies
unfo
interact
severely
entr
entra
indy
individ
sadistic
typing
moran
morse
moronic
##while
sorr
soror
swing
swiss
swashbuck
novelist
insist
##versary
1953
polished
screenin
danes
finely
corn
##lands
exclus
attempting
michaels
snap
snore
snob
snatcher
trel
trey
treats
imagined
avp
visiteurs
mississ
missouri
tenants
worthwhile
incredibl
copied
experi
stupidity
hilarity
picks
robertson
funnies
dragged
eytan
loca
##quest
suckered
tomorrow
frenchman
confuse
carey
careful
carefully
jeez
winc
winni
somewha
hearts
raise
railway
portion
musician
ridley
riddle
irony
irene
straw
adds
singapore
biographical
distaste
distingu
distortion
garland
garlin
verne
verma
vertigo
republic
repuls
havin
prominent
burst
burke
##volving
brokedown
qualifies
grab
graffiti
purist
questio
differen
unfortunat
gerry
gerald
melting
melvyn
resnais
election
memo
memento
owned
1941
1946
drifter
paints
valerie
popcorn
goldberg
predec
predator
presque
president
messages
majo
bloodbath
largest
##gera
stunk
patr
patience
williamson
daly
dafoe
##strasse
boxing
skim
skipp
skateboard
sunrise
untold
questionable
especiall
detention
vanishing
vanilla
instantly
bait
denmark
deniro
centur
ghastly
ghibli
solution
##kai
fuss
useful
##arried
1962
1966
babes
babette
refused
reflection
hopefully
delightfully
dieter
diego
antwone
subjects
sleaz
luckily
##ivalent
bills
capable
caprica
fascist
juvenile
jude
judd
judged
misty
neglect
positives
merc
sonja
internat
internati
mcdermott
covered
historian
tara
germans
femal
format
sands
karl
##ovar
##ovomondo
puer
puert
##ippi
##engers
juli
astounded
berns
footlight
violen
freebird
intrigue
carlo
creepshow
##riends
secretary
costs
holding
nik
niag
paltrow
wreck
involve
raines
rainbow
1800
illogical
operas
operation
strike
stumbling
remarkably
include
sarcastic
www
geniuses
buffalo
authent
provide
provocative
northanger
literate
literature
waitin
waitress
training
trainsp
krueger
voting
voters
beatty
purchase
regardless
homosexual
piec
develops
crossed
wrestler
blockbust
randall
breaks
breakfast
annoyed
cassidy
cassandra
compell
suffering
bedkno
lynn
disturbed
technology
##borne
dramat
personality
engaged
engagement
tends
invasion
##oooooo
robinson
daddy
salt
sales
respected
bonanza
esther
##laimed
thirst
choke
picturesque
jefferson
jeffrey
banal
kicking
signs
significant
##ucci
haunt
limbo
scratch
claiming
similarity
deranged
joyce
docudrama
immortal
argued
spiritual
bandit
cukor
lengthy
werner
explained
haters
mccar
saval
leoni
arrival
flashback
overlook
understa
appallingly
errone
occasions
stereotyped
villa
villain
villains
shadows
condition
condesc
corey
owen
intensely
ordinarily
miracle
penal
penelope
encoura
unsure
witchcraft
cycle
cybor
cypher
dunne
dunno
dungeon
jesu
liner
liners
linear
nominations
skelton
tortured
ingen
statements
shopping
enthrall
meeting
devast
intentionally
closer
meaningful
reference
combining
kenny
kennel
perso
##ikawa
rosal
rosario
graduation
montgom
007
jewel
nuovomondo
reveals
revealing
sheriff
conclud
concorde
archae
architect
morgana
listened
bergen
discussing
hoopl
nonsens
narrates
rapp
rumor
rumour
threat
primary
quietly
witnessing
draws
astonishingly
obsessive
argentine
kristy
kristen
pigs
1918
uncondition
experimental
depicts
jacob
jacques
tights
uggh
vivid
hawk
hawai
uninvolving
farewell
bobbie
industri
shooting
katharine
kissed
mentally
senior
##haust
separated
maxim
remembe
gloomy
communist
addicted
addictive
purports
purposes
criticisms
paperhouse
tremors
begun
seventh
shirt
dismayed
building
improve
physics
escaping
griffiths
dominion
espagno
flea
nazis
nazarin
oceans
cherished
transc
knox
schlockmeister
influential
inspiration
continued
mysteriously
rudolph
wicker
##crack
##guez
##donald
alleg
contest
unimp
gosha
implaus
survive
carrie
carrying
boasting
county
lauren
##struction
widower
widowed
matthews
gathered
mishmash
tails
yuzna
ishtar
##sticks
bridge
poetry
unmarried
earliest
fantasti
interpretation
properly
philippe
spectacularly
cooking
dimens
houston
jolly
lanza
milestone
narc
wolfgang
revisited
revisionist
energetic
outdo
holland
summarize
challenged
controversy
auberge
jared
tackles
vastly
wagner
sergeant
blaise
everythin
visitors
sexuality
hypn
##zzzzzzzz
suddenly
arab
cousins
downey
dahl
equivalent
mckenzie
plea
isabel
sterling
braun
briggs
brigitte
chairman
enormously
candid
precinct
anythin
progress
joshua
cobra
cheerle
disappearance
corbin
henriksen
criminals
convicts
supremely
thousands
botched
gwyn
jenna
leno
ricci
##girl
analysis
revelation
shaky
chamber
chamberl
peebles
crisis
crispin
excelle
minimum
farmers
phantom
courtney
mistakenly
graduating
philosophy
associate
environmental
dynam
silliest
task
tilly
vince
insecure
rehash
reliable
shepitko
exhib
remained
acquired
structured
appropriate
screwball
excitement
exploits
masterpiec
garnered
bernhard
nichols
gymnast
gymkata
siegel
excruciatingly
cunning
ecst
lillard
nomad
osborne
piano
rotterdam
saraf
##vania
forgiven
firmly
manifest
scotland
macleane
clunker
horizon
blatantly
crocodile
recreation
coincidence
security
parrot
curtis
department
potboiler
registered
reflects
feminist
calibur
eagle
lurking
lassie
lensman
raggedy
wirey
zany
shemp
sailors
church
butterfly
engine
meadows
scathing
quantum
twentieth
caricatures
colonel
obtained
harmless
paradise
glossy
switched
snippets
aparna
woeful
anniversary
baffled
mclaglen
caligula
subtitles
unsettling
rodriguez
ambiguity
dalmatians
benefit
connoisseur
aristocats
pintilie
911
arizona
aardman
bava
cummings
dawson
dribble
mordrid
srk
satell
vignettes
zatoichi
thieves
reversal
##icolor
stardust
shatner
abandoned
witherspoon
frailty
atheist
unlucky
unspeak
clumsy
projection
starewicz
exceeded
absorbing
muslim
schumacher
schedule
almodovar
luxury
paradoxes
supernatural
unfamiliar
morocco
swanson
insignificant
launched
veronica
broomsticks
purportedly
duvall
assignment
##onymous
difficulty
lackluster
scarcely
sidekick
futuristic
conductor
rosenstrasse
kristofferson
octopus
zeppelin
protagonist
beckinsale
minghella
circumst
kannathil
weissmuller
alcoholic
clyde
cactus
durbin
gershwin
kapoor
mutham
nifty
pfeiffer
rutger
tivo
taiwan
uzak
venez
wartime
zodiac
zabriskie
stalingrad
seymour
hauser
forsyth
exagger
soccer
lopez
suzumiya
alistair
prologue
spheeris
spaceship
deodato
goodbye
plunkett
timberlake
outlandish
mazursky
consequences
affection
unaware
unrelent
clifton
hepburn
carradine
minnesota
farrelly
margheriti
subspecies
jacknife
individual
mississippi
predecess
bernsen
bedknobs
encouraged
montgomery
unconditional
espagnole
chamberlain
1h
39
30s
49
46
40s
68
700
97
95
ave
aur
akin
azumi
bure
bick
bian
bci
bapt
bert
bitten
bumbling
cq
ck
ced
cim
cill
cain
cod
cig
cree
cbc
custer
cement
csi
cesar
dc
ds
dy
dd
dh
dat
dic
dop
dant
dual
dmy
dush
dwell
dassin
daph
ditzy
eq
eu
eer
eac
elf
emmy
ellen
ff
fes
fet
fits
fert
finger
gat
ged
gur
gear
gack
gass
gently
gaw
gaming
hr
hin
hir
hers
hating
homm
himes
hatch
ip
iow
iph
ives
jp
jag
jaz
jumb
jingo
ku
kh
kat
kal
kri
kook
kink
kitt
kib
kief
kett
kitch
kai
kats
kumar
kinski
korda
lis
lent
lust
lays
lag
lah
laps
lange
lump
laced
mim
mard
mame
mend
mia
metic
mute
mund
mantis
nt
nes
nim
nag
nach
naught
nina
nero
nerv
naud
ox
oj
ope
ome
oops
ova
ogre
ps
pent
pill
pard
pall
paz
pav
pont
pump
rous
rory
ritt
rib
rang
rusty
sv
sz
sx
sas
sed
sist
sny
sque
sica
soun
sides
sending
signed
tn
tj
tin
tong
tab
tus
tact
taut
tib
tench
tina
tune
tesis
tingle
uc
uber
vu
vad
vood
vile
vice
wim
wig
wack
wound
wile
wang
wont
xmas
xavier
yard
yall
yum
yaw
yell
yuck
yup
zp
zh
zad
zoo
zac
zipp
zucker
##cd
##cin
##cas
##cal
##col
##card
##cry
##caster
##cence
##cular
##ckey
##cano
##rat
##ran
##rust
##rock
##rics
##ront
##rani
##iu
##iou
##iere
##pass
##pity
##ees
##eba
##vo
##vor
##vant
##non
##nig
##nett
##tr
##try
##tte
##sb
##set
##sse
##sif
##lam
##long
##lord
##yy
##yers
##qt
##ube
##ules
##fie
##fman
##ffect
##felt
##fried
##fique
##fnst
##fbat
##aur
##aust
##gun
##good
##gard
##mit
##mith
##mation
##mine
##mph
##mpo
##matic
##munk
##match
##mined
##di
##dar
##dear
##dain
##oi
##of
##oz
##ois
##oft
##zer
##zot
##zene
##hil
##hay
##hand
##hetic
##bon
##bot
##bear
##bart
##bour
##bbe
##94
##wis
##wre
##wich
##wide
##wyn
##kas
##kies
##kien
##kerson
##kimo
##kumar
##kroyd
##17
##xter
##xist
##xley
##72
##jer
##jor
##jour
##jec
##joe
##jda
##54
##isia
##erb
##erk
##erian
thee
thes
theor
theod
##ining
##inine
##inav
##inwood
##inrid
##infeld
##ieved
##ieving
##att
##atin
##atile
##atically
##enia
##enna
##encer
##enbart
##orse
##orable
##orph
##orah
##orters
##orgino
##ouching
##asers
##asph
##ilo
##ilation
##ilante
isla
##anu
##anch
##anne
##anity
##eday
##edition
##edelic
##ington
##ingway
##arl
##aris
##arthur
moviego
##stig
##strip
anita
anemic
##oned
##onian
tooth
toons
toky
toys
toda
##lym
##lyss
##lybur
##itu
##itman
##itimate
##ala
##alon
##alous
##alma
inim
inap
instr
inert
inherent
beep
begs
ont
filth
##omat
##oming
##omwell
filmma
whome
rever
reck
reek
resc
restr
reiter
rewr
reeve
rehear
reaso
reagan
reform
reprises
reitman
##lest
##leine
##oteric
ital
itali
andie
wastes
##icing
##icut
##icid
##ication
##icient
##esa
##esse
##esking
##ader
##adam
##owczy
stow
stol
stree
stress
stif
stamp
stair
stones
##chon
##charine
seas
seed
sega
seedy
selection
segment
segments
seinfeld
##llar
##lland
##uta
##enta
##enth
##ental
##ayer
##ayne
hah
hak
haim
haired
haines
##iri
##irm
##irot
##irmed
##vering
bry
brat
brent
brood
brite
brod
bruck
brides
foray
forster
forcing
##idst
##idently
##idents
yousse
##amin
##ammen
##etown
##etta
##eteer
ascent
assemble
asinine
noti
notion
##see
shal
shint
shell
shield
shtra
shorter
##ionage
limer
abe
abra
abus
abhay
##imin
wate
watkins
myra
##urg
##urre
##urring
##urai
fren
fring
frau
frig
##terds
comet
combo
combs
sake
saps
##uled
##ulter
##ulations
chow
chun
chiba
##ersome
firth
exit
exch
exhaust
##cky
##ckinrid
weaker
soora
##thy
##think
##thia
worried
loan
loess
loath
loony
logo
lola
logged
##emen
##emies
sui
suspe
suzy
##eler
##elow
##elong
alr
ally
alph
alvin
prone
prair
##olades
somber
someday
##oped
##opoul
##opriate
spor
spre
spun
spind
spice
spare
whateve
##illat
##raint
amc
amr
amu
amos
amster
amuse
amato
amnes
amidst
hass
grease
gretch
doom
doors
dogg
doomed
ens
enf
encom
enemy
enhan
enemies
canine
cancel
mell
meek
measure
meandering
##artan
##artement
##anta
##geyman
dek
deer
deat
deem
deol
deci
degr
della
destruction
nest
neill
neuf
actr
actu
active
activ
activity
byr
someo
dix
digest
scu
scam
scout
scul
scri
scots
greats
greatness
##oder
##odies
plastic
placed
timing
##aug
##ause
whos
wholes
##ssss
vega
##orest
##istical
##istingu
outright
outsta
maur
maher
magg
truff
trotta
noire
conco
convert
convey
conrack
knute
sayles
intending
intensive
intimate
prev
precis
previou
prestig
fein
mulder
affect
fabr
poi
poly
pose
posey
poirot
poorest
##oying
uned
unem
unass
unleas
unles
unav
unger
ungar
unjust
unthink
##iger
##igenia
##ppled
goal
goers
gosp
gojoe
knowin
knowles
don´t
donnell
ads
adu
adve
##allow
madd
##gins
storytell
clan
clown
clapt
clash
clamp
clues
cloying
horny
horrified
pep
peach
##ittal
##ittle
aga
agust
agatha
##ummer
fang
howev
anywh
anytime
queer
quaint
##udy
##uded
##aku
hei
hein
heap
heath
health
disre
disgu
dismal
tec
tepid
teaser
madeleine
##ishes
##ishna
##iche
upro
proving
provin
serve
serving
serbian
##abo
##abase
wrath
imax
imitation
spoiling
twi
twis
remi
remove
org
orth
organ
lex
lege
leap
roast
robe
rogue
rooney
rochon
##ounds
funky
fundam
##usa
arth
arqu
arbuck
readi
reads
##pless
##plete
jobs
getti
blaz
blah
blurb
blasph
okl
##pton
crying
crooked
crater
crouching
##assy
##assed
##aging
usu
usher
##neck
perd
percent
perverse
enjoyab
lookin
##mana
##mania
##manuel
flood
flame
flak
flour
flix
throwing
thrille
gran
grint
##osian
##osity
##ospective
offi
##iana
commenta
willi
willie
belle
belgi
belmond
reco
recen
##ryn
desmond
mayall
bigot
bigger
bigelow
##pered
terrif
overp
overst
overbl
basi
bash
bashed
basterds
##arkable
charter
charmed
beta
bettan
hire
hiking
excep
unders
undone
survey
nightcl
foch
coz
coons
coffy
leth
##estinian
fiv
fift
warg
guer
gugino
guzman
sli
slate
slip
slayer
caro
##ienne
aca
accu
plotless
wondr
befriends
##devel
realis
realist
drool
drugg
##ogyn
newer
undercur
waqt
wajda
pretend
backd
simmons
fewer
##plo
##place
##cubus
trav
classed
epics
talks
doesnt
parti
borowczy
##olution
genr
gena
oldest
youngster
##quate
excellently
farley
farmer
farrell
stein
steady
steele
stellar
boots
##ilyn
didnt
stro
strat
stren
stran
102
10th
absolutly
famili
##acies
wayans
##neyed
opi
longing
proba
probable
probabl
beginnin
althoug
favorable
attic
chea
cheat
cheek
##ressed
marco
marital
marquis
margera
marjor
marilyn
chann
friendly
coura
yours
apprent
appartement
playe
playboy
crapp
craze
episodic
wowed
heres
herbie
ohio
ohhh
ohdear
##lesinger
viewings
hole
hobb
hockey
##mmm
##ipse
keitel
keanu
documents
througho
settle
setup
hug
##web
##weet
endure
endorse
reasonable
colomb
##awan
casts
castro
decad
decid
declar
budg
incr
incarn
musically
muscular
##redeem
##ache
tyr
tycus
tycoon
##asha
defense
defence
##oolan
smit
smal
smugg
smiles
##icance
misn
misgu
misrep
misogyn
##episi
amazi
amaze
amazin
amazon
giorgino
ideals
feelgood
writi
writings
lauded
barbe
disappoi
callahan
consi
conside
conserv
scha
schoo
schwar
schepisi
monarch
montan
childre
lupin
evo
evident
flicking
downlo
phoolan
norway
obv
obel
oblig
compa
compact
compute
extended
extension
##sheba
completing
completed
hoppity
pleasance
premis
premie
accolades
brillia
putrid
satya
satanic
entertainm
entertainme
defining
creati
scenic
matters
##ahi
##ahah
rightly
harper
pari
parano
paraph
parsif
glob
elmer
elmore
elabor
elisha
godd
darkman
containing
##cca
bitch
bitters
fanta
mik
mikh
miami
delta
delicate
delicious
geo
geena
subsc
submer
subcon
subje
suburbs
adaptat
descr
ruined
drea
christma
follower
boyc
##berto
##scious
understanding
artis
artem
humm
humble
humane
humili
laughe
performer
michel
theatres
studen
supporting
considerably
superl
superstar
relish
relates
unfa
##dball
contend
contact
wales
walks
walerian
interna
interplay
interwo
severa
pictu
shea
despit
despair
indu
indones
indiffer
indesc
commended
sadness
examines
typic
typica
moron
mormons
stupi
midst
mindy
##ventional
scripts
engli
telecast
extremel
swoon
retire
novelty
insul
##version
policeman
brits
britis
dani
dancer
danza
fourteen
coron
corps
corpse
powe
##lander
ers
erasm
excess
redu
redneck
snare
snider
snuff
snobs
trea
trevor
colleges
dirk
ava
avalon
sitc
sits
situ
visitor
##grown
##hei
##hecy
explod
hellman
standpoint
apology
bothersome
cuth
cutest
hilario
##guay
##guire
aboard
weekly
depi
depends
depalma
sexploitation
funni
funnie
drake
locat
locke
located
smallville
slowest
homeward
homegrown
sucky
characteriz
tomas
cavern
##retentious
caree
jealous
##itions
uniqu
rocker
rockne
opini
potent
potter
trif
trial
trials
trigger
winters
heartland
heartfelt
rae
raun
racial
raft
raoul
raiders
specials
musica
fres
killings
rides
wrongfully
hunk
hunted
hunky
handles
ourselves
##gging
##gggg
##ientes
irons
irres
alrea
alread
address
batwoman
singers
bike
biograph
breckinrid
##linson
angie
angle
angles
stormy
distress
garson
themed
reports
promi
promote
promises
expat
expedition
paulo
##certing
qualified
202
grav
grabs
marty
purists
##syl
deathstal
differences
germa
reserv
resurre
elem
owns
rik
ripper
wishes
demo
demme
democ
painter
valu
valiant
valientes
lightweight
completel
pope
popu
popped
popey
poppa
goldwyn
dug
duguay
presen
presum
presley
idle
franklins
frankenheimer
bloodline
larisa
##gerald
stunn
stunts
franc
patch
patty
patien
patron
succes
cheapo
nearl
sykes
syfy
##ulously
deserv
daffy
mystical
lively
boxer
odds
oddest
ski
skies
skenbart
skammen
sundan
woods
talkies
appearing
magoo
counts
helped
prize
inste
tryi
tryin
austral
campers
robber
successfully
deneu
denzel
util
headline
difficu
gho
ghill
ghett
solar
solve
screenings
turd
turbul
stops
fug
thirds
filmmake
1964
##mask
##bral
30th
samurai
refined
hopeless
hopelessly
delights
yokai
antics
sleuth
sixteen
legal
legacy
judith
judges
judgment
mistakes
entirety
merits
merhi
passing
passable
vampir
credibility
latin
louise
mcg
mcla
mcdowell
mcadam
damsel
milo
milan
trashed
darius
darwin
darkest
suspension
conception
unlikel
unlikeable
stephan
stephane
emoti
emotio
psyc
sandy
sandwich
dialo
barbarians
kari
criticizing
captur
pufnst
modine
##lett
intrus
introspective
particul
particip
mixing
psychic
psychotic
psychedelic
berman
porgy
inspi
heroic
heroine
creativity
weirdo
weirdest
natured
natali
losers
prophecy
importance
philly
photog
lands
landing
landscap
spirits
carlson
legends
creepiest
fools
loosel
mentions
mentioning
noni
radi
russo
russians
angelina
12th
boost
figur
figures
sentences
senseless
thinly
thinner
##ursor
frozen
costa
costas
costner
holden
songwr
lambast
mildred
palestinian
jeanette
busy
busby
eighteen
lesley
rainer
brained
##unders
dealt
185
18th
fights
stripped
stripper
basicall
gaynig
siu
awarded
heavenly
longe
laws
ramon
sickening
##annu
##anners
teaching
firefight
obser
politics
garbag
bilge
casual
literal
oppenheimer
occurs
occurred
synth
##parov
##hhhhh
chapters
portraying
kras
krishna
raymond
##aaa
##ification
purchasing
babylon
victorian
homoph
malcol
restored
restraint
brotherhood
briefly
lifelong
masks
masquer
metam
metaph
senses
sensation
sensational
forties
fortune
susie
1000
panel
panahi
window
##propriate
reveng
appea
appeals
andrei
fabian
texan
avidly
motor
split
uneve
roller
companies
introduce
invaded
##ooooo
greenaway
stepford
attraction
bollyw
dads
lords
ranch
ranked
salv
salman
widmark
##castle
##nik
adams
universally
bonham
bonjour
dinner
establ
thirties
##otype
chokher
macl
macabra
macdonald
macarthur
records
focused
melodr
melodram
17th
kipling
squire
souls
tourists
venge
respond
foreigner
limit
subtitled
prisoner
transform
1929
1926
claimed
crimson
similarities
carpenters
naach
snea
##itiated
ashanti
divide
immigrant
argument
expressive
idiots
antique
impossibly
cujo
honour
langdon
pulling
##enzi
spinning
armaged
catches
bondage
dubbing
mccl
mccorm
nymph
ninet
nicknamed
sells
altog
clubbed
understated
misfire
misfires
occasion
undoubted
boggles
bogosian
furious
informs
reyno
bradbury
condem
conduct
collins
collinwood
attacked
complaint
complaining
jessie
loren
lorna
loretta
labute
owl
punct
tapes
##ouded
##oops
dragstrip
battlestar
models
modeling
balls
bachan
bachchan
jenni
miriam
publicity
ringo
santoshi
##eeee
chicke
unsung
snowy
cowboys
extraordina
businessman
businessmen
bleep
cyb
cyber
janet
nominat
skeptic
skeleton
devoted
flipper
flipped
fortunately
circa
circus
dorm
olen
persu
siskel
siren
sophie
sophom
lovable
uninte
boards
boarding
edwards
speaks
montage
montana
montgo
unfunn
hundstage
gutten
garde
ivy
##itzer
sherman
archer
archie
corresp
riverdance
audienc
marketing
narration
raped
rapid
rumors
urbane
##burger
hackneyed
atmo
alberto
primal
sprin
convolut
admirable
admirably
delivery
burned
lindsay
risky
shiner
shinju
societ
greysto
constit
constra
1913
1914
crashes
absurdist
absurdity
experimenting
depicti
aimless
bacon
cusp
cushing
etc
galore
tightly
shelley
knocked
intellec
uninitiated
awaiting
awaits
empath
shooter
wrestlemani
recognise
recognition
cynthia
dudes
dudley
gyllen
kathryn
kissing
mentio
senile
voyager
zeff
##haal
separates
deceived
unwittingly
floor
floored
globe
passionate
virginia
frustrat
cuban
eskimo
esoteric
hilton
hosted
hostage
tamara
tremend
veterans
seventeen
chopra
choppy
prototype
testam
acceptable
highlights
highlighting
improvis
physician
compete
competent
escapist
bulgar
dominic
dominated
espionage
fleet
gamers
gammer
ludlum
malefique
##gregor
##oche
sacred
saccharine
knightly
governmen
clueless
update
marlon
incompar
schlocky
phenix
identify
influences
millionaire
continuity
junkies
pedigree
rudd
raves
vicente
reacted
reactions
outraged
nostalgia
grossly
carrot
carries
boasted
counting
counted
eventually
gloria
glorified
collecting
frequent
festivals
sydow
privileged
enthusiasm
cardone
cardboard
cavemen
dustin
ethnic
elijah
gathering
houses
hideo
lumiere
nerd
nerve
nerves
pasdar
rhy
rhode
ruthless
ticked
bridget
shares
unmiss
peaceful
agrees
textbook
blondell
groovy
education
accompan
accounts
accountant
performers
indulgence
rajkumar
distinctly
daisy
dimw
naruto
pixote
rickman
rifle
sabot
deepest
neatly
outdone
outdated
novak
flux
florence
surpasses
electric
electrifying
##bridge
capitalize
victims
caliber
califor
categories
categorize
symbolic
researched
vincente
dalton
jaws
nasa
riget
racketeer
wrap
wagon
wagons
##evsky
##hurst
tolerance
##omaniac
whims
stalwart
sticks
##ership
suitable
destined
destiny
tricky
conventions
unclear
sergei
everythi
perfec
flopped
offset
warners
commandments
hypoth
duchess
remembers
arabian
barton
boiler
dowdy
equal
fern
hurlybur
mckenna
pennsyl
rouge
wisecrack
##holland
##working
##attering
##anthe
tolkien
spiderman
precursor
feeding
feedback
unpretentious
anythi
progra
survived
coburn
##ployed
epitom
cheerful
specially
specific
disappeared
suburban
unfairly
corbett
journalists
##aaaaaaaa
translation
phenomenal
outrageously
bardot
bardem
blessed
gwtw
gunga
kersey
nigel
opted
volcano
wenders
anothe
revels
stumbles
shuttle
clooney
uplift
prospect
bloke
undeniable
mislead
comebacks
cannibalistic
graduate
brazilian
neighborhood
encountered
inaccuracies
azte
axe
dumber
elderly
ficti
fields
hanzo
i´ve
kazaam
nails
oddball
pirate
sicilian
sooo
tiempo
andersson
wasteland
happe
exhilar
alaska
butchers
feeble
tweety
blankfield
acquaint
structure
cheezy
glamor
glamorous
swimming
returning
skilled
stylized
babysitting
babysitter
inferior
profoundly
bernard
automob
automatically
ignoring
ignorant
mirrormask
championship
acknowledge
siegfried
aykroyd
bathsheba
cerebral
hemingway
kirk
kirst
nominee
nathaniel
ponderous
sgt
tutor
vigilante
viole
inhab
brashear
forgiving
weirder
deceptive
deceptively
mannered
scandinav
maclean
november
clunky
claudine
horizons
blatant
borderline
strangeland
margret
employees
comprehend
comprehension
georgia
relaxing
explosions
audiard
cowardly
1895
stripes
observations
inevitable
loyalty
alda
bahrani
dictator
eclips
eclipse
felix
ichikawa
perez
sondra
sondheim
wyoming
wolfe
todesking
inherit
deleted
conversation
intolerable
pollack
unremarkable
unconventional
claymation
climax
clouds
dispos
cranes
cruddy
basket
basketball
charisma
built
crazed
holocaust
considere
gloriously
substance
hollywoo
swayze
rocketship
gemser
skinny
infuriating
psychiatrist
psychiatric
boobies
tornado
repeatedly
challenging
bullets
transporting
viciously
connecticut
awesomely
tigerland
hesitated
distributor
prejudice
bounty
caval
doodleb
eternal
fitzgerald
gifted
henderson
hannibal
kokoda
leroy
mpaa
maureen
meltdown
nintendo
nielsen
pioneer
tashan
inglorious
hauer
bruno
##eretta
shaggy
chandni
chabat
chainsaw
atkinson
docto
scienc
platoon
unlik
uncomfort
disbelief
proclaimed
imitates
lecture
rosemary
josie
horrendously
slumber
drunken
attorney
schrader
evalu
mattei
glacier
critiques
reluctant
petersen
redundant
potemkin
catalan
effec
venoms
bewildering
dudikoff
shrewd
illustration
inexplicable
arrogant
acknowledged
666
breezy
benchmark
dakota
eithe
fathom
glee
kasparov
kamal
kaufman
lansbury
mraovich
nsna
nurses
sorely
tintin
ullman
vowed
varying
vienna
vierde
wisdom
yahoo
##enosets
incest
whitaker
whirl
rebecca
resemblance
youtube
asylum
noteworthy
notwithstanding
sholay
shoddy
shabby
lizzie
abbey
myrna
chipmunk
chocolat
soderbergh
canceled
manchu
plunges
maverick
construct
knotts
advised
adjective
adelaide
adrienne
clonus
clicked
fanciful
disease
displeasure
disconcerting
orchest
grisham
reconc
territory
schizophren
evangel
creaky
harvard
eloquent
ruggero
article
entrails
sorority
wincott
distasteful
repulsive
puerto
authentic
trainspotting
mccarthy
savalas
ingenious
enthralling
rosalind
archaeologist
hoopla
rumours
hawaii
industrial
allegory
unimpressive
narciss
outdoes
candidate
cheerleader
gwyneth
dynamite
exhibits
ecstasy
sarafina
satellite
muthamittal
predecessor
bureau
cedric
cillian
cigar
database
danton
dmytry
dushku
dwellers
daphne
equally
fertile
gatto
gackt
himesh
iowa
iphigenia
jazzy
jumbo
kiefer
kettle
kitchen
kaige
katsu
mardi
mundane
nacho
nervous
omega
rangoon
svank
sxsw
snyder
tuscan
zhang
zadora
##wreck
theodore
tokyo
inappropriate
whomever
reeks
rescue
##icidal
stairway
youssef
shintaro
shtrafbat
limerick
abusive
sooraj
loesser
alpha
prairie
##opoulos
amsterdam
enhanced
degrading
maggie
truffaut
unassuming
unjustly
unthinkable
gospel
clampett
arquette
arbuckle
##manuelle
belgium
belmondo
overblown
bettany
nightclub
coonskin
fifties
undercurrent
marjorie
apprentice
misguided
misrepres
conservative
schwarzene
montano
paraphrase
parsifal
bittersweet
submerged
subconscious
indescrib
erasmus
breckinridge
deathstalker
popeye
ghetto
turbulent
merhige
sandwiched
lambasted
gayniggers
homophobic
malcolm
armageddon
shinjuku
gyllenhaal
hurlyburly
doodlebops
dmytryk
03
09
01
02
3k
32
47
51
52
55
56
61
67
83
81
84
98
92
ais
aer
aint
aali
aeon
bf
bg
bb
bw
bou
bly
bim
bast
bite
bough
bass
bio
benn
bump
baked
bathe
benson
cb
cust
cem
cake
cac
cull
cord
cott
caps
crib
cities
dk
dion
dand
dough
dink
dame
dought
damp
dork
dates
dino
dcom
dots
dump
dune
dwar
dtv
dazz
daug
evie
ell
eld
eck
eig
eure
eco
estr
egl
ekin
elli
ewo
fie
fas
fot
fop
fart
fand
fum
fud
fess
ferest
fiend
fuck
faus
fiance
faint
faux
gf
gou
ging
gon
gid
gap
gau
gleas
gome
gli
gaps
gates
gina
gush
gai
gains
gator
gender
gushing
gesp
hs
hl
hg
hic
hud
hiller
hank
hyn
hence
hana
hints
heder
hutton
hoops
ic
ik
ive
iam
ico
izz
irel
ivey
iyer
igor
icar
icky
ji
jw
jj
jou
jel
jone
jist
jig
jade
jans
jail
jero
javier
kic
kust
kend
kos
kro
kare
kool
kah
kier
kael
kork
khal
korn
kersh
kitsch
ketch
kadd
lul
lel
lore
lus
lark
lac
lull
lied
lank
lina
linger
liev
luther
lenzi
mt
ml
mith
mitz
maude
nr
nz
nb
nit
nite
nod
nure
nab
nib
nations
niam
nasc
nula
nati
nope
nether
nana
naming
nude
nune
nva
nause
og
ole
oll
ober
osw
oeu
olym
pon
pes
pod
pist
pak
pays
pag
pend
pour
pake
ppl
pip
pang
pied
piv
pics
pench
pors
pork
pans
publ
poop
pya
pounding
pages
pulse
rp
rg
rapt
rash
rah
ramp
rings
rhe
rks
rude
ritter
ruled
ss
s1
ses
sct
sri
sother
sib
sult
sang
sord
sided
sung
sized
tl
tan
tent
tain
ties
tud
tark
tire
taps
tung
tets
tarr
tues
tonto
tugg
tires
tidy
teta
tumbling
ui
ua
udo
ulyss
vom
vul
vap
vort
vind
vag
vint
vos
vog
vib
void
vaugh
vaude
vcr
vomit
vcd
wt
wl
wand
witt
wak
wary
wage
wip
wings
wright
wides
witted
wisc
wandering
xx
xiz
yv
yer
yan
ying
yay
yam
yol
zi
zer
zen
zel
zap
zand
zark
zool
zep
zhan
zwick
zzzzzzzzz
£3
£4
æon
##cz
##cat
##cut
##cul
##cers
##cience
##case
##ccia
##cchio
##rand
##roy
##rum
##rice
##rity
##rically
##rors
##ratic
##rats
##rup
##ias
##iom
##iart
##ibe
##ika
##pd
##pit
##pol
##pish
##piece
##pool
##pah
##pingly
##pins
##puted
##eo
##eb
##e0
##eou
##ean
##eing
##vc
##vre
##vic
##vial
##vance
##vale
##vagan
##net
##nies
##nish
##nick
##nity
##nost
##nka
##nants
##nars
##tie
##too
##tur
##tel
##tak
##tles
##toon
##tons
##tzy
##taker
##tabl
##sa
##sing
##saw
##sula
##ski
##sville
##sploitation
##slaw
##loo
##lap
##los
##lty
##lake
##lace
##lma
##lene
##loe
##lico
##yle
##yll
##yah
##uu
##uk
##uan
##ule
##uld
##uki
##uca
##uities
##uquer
##fa
##fre
##fri
##fart
##fig
##fess
##four
##father
##frey
##founded
##af
##aj
##aid
##aved
##aqu
##aja
##agher
##gol
##gone
##gens
##gically
##gingly
##gler
##ganger
##gopal
##gatory
##mu
##md
##mor
##mally
##mate
##mitt
##mud
##mak
##mare
##mingly
##mont
##mates
##mail
##mony
##mitted
##dem
##dish
##days
##oj
##oce
##oven
##oine
##oint
##oster
##oque
##oki
##olet
##zing
##zem
##zio
##zac
##zov
##zenta
##hut
##hel
##hop
##hill
##hart
##hild
##hib
##hai
##hoe
##bas
##bes
##but
##boo
##bound
##bable
##buster
##banks
##bishop
##bearer
##wes
##wind
##wag
##wald
##wicz
##kow
##kid
##kling
##kura
##klar
##73
##7en
##2k
##25
##200
thal
thack
thall
thour
thumb
thames
thhe
thug
##isl
##iso
##isz
##isen
##isch
##ision
##isem
##isio
##erin
##eray
##erick
##erpt
##erty
theft
thefl
thelma
##inar
##inite
##inist
##inqu
##inction
##inik
##inpah
##iell
##ieker
##atus
##atos
##ativ
##atement
##atisf
##atnam
##atrice
##enst
##enet
##enary
##enact
##enster
##enco
##enger
##enze
##orr
##oray
##orak
##orio
##orating
##order
moi
moe
mout
moose
mome
moto
mohan
mojo
mould
##ouzot
##asu
offe
ofte
##iler
##ilities
isl
isa
isle
ishi
##any
##anist
##anical
##anha
##anche
##edith
##edge
##edict
##aric
##aroo
##arist
##arus
##arost
##arno
##arlen
##ariner
##sty
##stan
##stoy
##stock
##strated
##stair
##steen
##storm
##stitute
anom
anach
anten
angr
anno
anarch
anonymous
##oner
##onent
##onge
##onne
##onair
##onov
##onara
##onaugh
##reed
toe
toge
toast
toss
towe
toward
tolling
toby
towar
##itate
##itos
##itated
##itably
##itiv
##itier
##itism
##itrust
##alt
##aline
##alta
##alondo
inan
inve
inch
inki
incubus
inkling
beale
begr
beans
beeth
bega
bevy
beaver
begging
onstage
##omus
##omics
##omatic
##omai
filme
filmic
filmaker
filmfest
filmfour
whet
whore
whack
whew
whiny
##vello
retain
resh
rebell
reworking
reenact
##leon
##leby
##lewis
##lehurst
##oto
##otine
##othing
##otik
ander
andress
##ici
##icy
##icent
##icop
##icte
##icator
##icitor
##esy
##eson
##esia
##esque
##adh
##adle
##aders
##adically
##adoon
##advent
##adona
##advant
##owl
##owvale
stin
sting
stir
stear
stab
stable
stath
stitch
stiff
stacy
staged
stmd
stoner
##chily
##child
##chell
##chron
sep
seal
sect
seque
sepa
seaman
semana
selander
se7en
##llers
##uten
##utet
##enter
##entia
##entio
##entro
##entiment
##aye
##aya
##aying
##ayal
##ghis
##ctic
##ctive
hac
haif
hagen
##irt
##irth
##irking
##iratnam
##ooon
##verly
##verent
##verty
##verting
bris
brie
brot
brink
brend
brys
brush
broug
brenda
bromwell
forre
forman
forens
forces
forlor
forrest
forbes
##idable
##idential
##iddle
##amish
##amura
##ambitious
##ambles
##amenco
##etr
##etical
##etically
assy
askey
aspir
noth
notre
notions
##sec
##segu
##sexual
shim
shout
shud
shue
shaz
shia
shire
shif
shane
shiel
shann
shlock
shorth
shuff
shawn
ships
shwa
sheds
##ionably
libert
libb
limon
##ceau
##cemi
abi
abuse
##imi
##imil
##imated
##imsy
##impton
##imoto
withd
withna
##lden
myse
mysel
##urity
##urance
frat
frus
fract
frames
fraud
frothy
fruit
frodo
fruity
frantic
##terp
##termin
##outh
coms
coma
comin
comical
comprised
##ustomed
sap
sau
sax
savin
savi
sailing
sacha
sachar
saunders
sakura
##ulo
##ulent
##ulation
chr
chas
chal
chad
chri
chart
chore
chame
chint
chry
chave
chili
cheng
chips
chik
chasing
chloe
exe
exem
extern
extermin
##rier
##riers
##ribe
##riana
ath
atwood
atoll
##cks
wei
wea
ween
weill
weary
weaver
weaves
weisz
solin
sogo
soppy
soda
##una
##uner
##tha
##thyn
wore
woronov
lod
lois
loathe
looney
##emous
##emore
##emma
suf
suite
suave
suits
sugi
suprise
sudan
suprised
##ndest
##elung
##eliness
ala
alo
alon
alic
alison
alamo
prue
prague
prices
prisc
##olar
##olit
##olare
allend
allred
allah
allowing
##opid
##opard
##opia
##ophe
##opold
spoo
spate
spies
spine
spock
spoon
spade
spans
spett
spright
spencer
spartan
sponge
##illating
##rac
##rable
##rault
ami
amo
amis
amat
amon
amel
amore
amorous
amoral
amiable
hassel
likeable
likeli
everett
greene
doi
dos
dock
doone
doome
doco
doyle
enou
enab
enfor
enforce
enoug
envision
canter
canton
cancer
cancan
mec
mee
megan
meager
##arts
##artney
##antine
##antopoulos
##gee
deu
dell
dept
deja
dewa
deformed
dexter
mana
manip
manding
mankie
manuf
maniratnam
nec
nei
neph
actuall
seeks
bynes
someh
someon
somebod
someplace
##asts
##astrop
##astimil
dive
diab
dizz
division
dizzy
scud
scint
scro
scamp
scub
scrip
scanners
greate
##appe
##odmak
plow
plant
plate
plough
plank
plans
plants
plucky
plimpton
timon
##sson
##ssain
veber
veiled
##onest
hadley
##istle
##istry
##istible
##istesse
oute
outf
outbre
maa
mah
mack
mazz
mabel
maca
mahat
maguire
trom
trond
truck
trade
troop
troll
truman
trinity
troche
trnka
tristesse
noi
noe
nos
nob
nost
nose
noah
##ands
##ander
##anding
conned
connel
convi
condie
congre
conquer
convenient
consegu
kne
knee
knef
showca
badland
sayer
sayonara
inten
intere
intens
intents
prese
prete
presc
preced
pregn
fey
fees
##herald
##veness
mud
mukh
afgh
fai
favel
facial
facing
facil
pock
poig
posh
pokes
poitier
poverty
##oyann
unr
una
unio
univ
unwh
unrated
unres
unites
unpr
unbi
unoff
unquest
unappe
unherald
mostl
##peg
##pell
##iga
##igal
##igning
##igley
##igorating
##ppies
##ppings
goat
goon
##inkers
timely
##ortions
donna
donnie
adele
adulter
adentro
afterno
clic
clare
clipped
clutter
clerk
clouzot
clothing
lovelace
##indle
peg
pew
peers
peva
ager
agon
agenda
##umen
##ummy
##umped
##umerable
fancy
fangor
howeve
anyb
##onda
quart
quitting
quai
quigley
##berly
##berman
##berry
##aks
##aka
hef
heated
disn
disne
dispar
disdain
disadvant
tep
directi
directin
##esses
##ishi
upa
upsc
uptight
projec
prostitute
##oiled
serb
serend
serrault
##abe
##about
##abul
wro
ima
imbe
imita
##ickgu
##fee
##fell
##fevres
starte
twili
twister
remo
remaking
remnants
orwell
orfevres
leo
leas
leag
leigh
legged
leila
levres
leisen
leopold
roc
rosc
roald
robbie
roaring
funds
funded
awed
awwww
##inek
##uspect
arc
arou
arnie
aranda
arises
arzenta
readily
##arya
##pley
jok
johan
bled
blad
blog
blier
blub
bluth
bliss
blister
blowing
bluff
blanc
okul
##ptastic
crop
crist
crass
cros
crown
crui
crashing
crusty
croft
crummy
everyman
everybod
##assion
##agl
##agne
##enden
##endel
##endium
##endira
##ffen
##nea
##neur
##nelli
starz
starev
perv
pert
pervert
perisc
perverted
perabo
perversion
peralta
enjoye
enjoya
enjoyment
lookout
##taining
flas
fled
flay
flies
flack
flip
flics
flair
flats
fligh
flamenco
flimsy
##inton
gris
grot
gram
groun
grieving
gruner
grendel
##osse
##osition
offens
offense
offends
##tyns
comedi
comedie
horrorfest
commente
beli
belg
belive
belgr
recom
recapt
recount
recru
recesses
##nyard
desol
desires
maya
mayb
mayer
bigg
bigal
terro
terence
lotr
##teenth
overr
overt
overa
overcome
overboard
overcoming
overambitious
basing
bases
basics
##cifully
charley
charged
betsy
betray
undying
undead
undistingu
##ictable
heark
suraj
foe
foll
focuse
follo
cox
coat
coleman
lasts
expecti
expectat
expectati
letting
##esth
fix
figh
warmed
warlock
warlord
guit
guill
guidel
slag
slide
slated
slog
slave
slob
sligh
slater
slaver
slooo
slanted
carre
carroll
caribe
##actic
##actica
acr
acce
plotted
plotline
favou
##dead
##degard
mins
miner
mining
mines
minion
ministry
minnelli
reali
realiz
realizing
realizes
drom
drench
dramed
drops
druten
##phin
##phery
##phony
whereas
newman
underval
underrate
undergro
underlying
underrat
underdevel
wav
waist
waff
pretens
pretends
##aza
backs
backstage
believer
believing
sims
simil
simms
rents
rentals
beforehand
fini
finland
financed
##plar
##plifies
interests
seeming
traf
traw
tract
trace
travis
tragi
traps
traitor
tragically
trappings
classical
youngest
remembering
talky
partial
borden
genie
genetic
gencon
geniu
genghis
olds
##iao
hardcastle
excellence
sinister
##ioklar
dvr
highl
##quiv
##bee
##bezz
farcry
shoulda
shoulder
stev
stealing
steiger
steffen
boa
boeing
bostock
didn´t
strays
strings
strug
strummer
##izi
103
famed
##acing
##acular
##acao
wayn
awfulness
johnathan
johnlewis
opus
oprah
operetta
##veland
ears
earns
beginn
somethin
shortage
buf
buon
buchan
buchar
attr
attitude
chez
cheers
cheated
cheats
cheering
founder
founders
##enso
##ensen
##ensored
agost
##ressi
##ostore
marian
marred
marines
marxist
maradona
marceau
martha
chanced
changer
originals
originality
yourse
appa
appleb
appoint
##rofo
##rofess
playi
playin
playful
craving
craft
edi
edd
edie
eden
educa
##irelli
interestingly
lowly
lowered
admi
admired
admitting
administ
herd
##lesc
viewin
hooray
versi
versatile
##mmet
##ipity
kevi
documented
documenting
surel
screens
screamed
agains
throughly
##avan
##avian
##avano
huh
hussain
videostore
endi
endin
enduring
colo
column
spelling
specia
spewing
##ultimate
##aways
casted
decl
deca
decisi
buds
budding
incar
incent
incons
##redictable
possibility
tyson
##ashy
##ashed
cinemasc
cinemato
smo
smother
smarter
smiling
smirking
girard
##life
misery
misca
mismatch
misadvent
##epers
givin
giorn
kindred
feeli
writin
imply
laug
laure
releases
holotik
##derd
##lessness
barr
bars
barred
barric
barcel
barbera
barnyard
animations
consp
conscious
conscient
considers
consuming
conscience
schl
schlesinger
monot
monica
##ango
almos
luce
luca
lukas
romper
romero
##aneous
evi
evolved
evolution
flicked
dourif
downhill
phili
phara
phoe
nora
happiest
emmanuelle
embezz
stuart
##ivan
compel
compilation
compassion
compendium
disappointin
disappointmen
exten
extent
##shay
##shaw
##shank
pleasing
pleases
pleasingly
premises
accid
accustomed
brilli
brillian
putain
putney
satu
defini
definat
definit
creed
cream
creations
paolo
hitok
mati
##ahl
##ahoma
somethings
americana
hara
harem
harman
harlin
harped
harmon
harron
harlan
mastered
masterly
masterwork
paren
parris
glen
glide
glitter
glued
glutton
elig
elia
elton
elmo
elimin
elwes
needful
differe
budgeted
darko
darkly
worldwide
biting
##otti
fante
miikes
delves
delpy
delusion
delinqu
geish
geord
geologist
substand
subgen
subsequ
daytime
rugr
ruins
ruby
rugged
dres
##otee
##otech
christy
christm
christine
christophe
followi
followin
simpson
boyd
clea
cleese
cleveland
secondary
##sca
understands
tota
arti
artists
artwork
huma
humming
blacks
blackmail
factual
cercle
cervello
jacks
jacket
michae
theatri
theatric
supply
support
supporter
consideration
considerable
honey
houseman
housework
houseboat
superf
meanings
sequenc
doubting
relating
relations
relatio
relieved
unfolds
cinemax
conta
contra
contender
contract
contamin
spoilerish
intervie
interne
intergal
intermin
intertw
intercut
intermitt
severe
enti
entries
entrep
canned
easi
easier
pictur
sheet
sheep
sheedy
teena
despised
##ewed
indi
indies
indicated
indicate
runn
runaway
commend
commiss
sade
sadie
examine
examined
examination
typifies
##adyslaw
mora
morally
morrow
morni
moranis
mornin
moriart
morphin
seriousl
silen
silva
midget
midway
minding
##vention
scripting
davi
summery
generall
petty
petition
petites
sorcer
sorrow
certainl
enga
engage
extremities
swel
swill
swap
swope
swallow
switzer
retre
retel
retitled
retros
insert
insurance
polly
polite
poland
danson
danner
corp
corky
curre
curly
curve
curate
curry
curren
curacao
##fta
##ftm
perfected
powa
fairbanks
##enching
##alee
witless
##onsin
eros
erica
ernie
erkan
erendira
excite
excurs
excuses
excerpt
murky
rede
redo
redline
redford
redef
snit
snoop
snappy
snarl
tread
treason
colleague
collected
imaginable
avi
avant
avna
avai
sitco
##groun
missile
tenko
tenuous
tennant
##hey
copper
copying
standout
experime
stupidly
cutesy
##guard
weeken
austrian
austria
nameless
topics
richa
richie
richar
depar
##bole
sexu
sexiest
sexploit
draft
locarno
smaller
##tai
##uckers
##omme
slower
##quez
homecoming
gamely
tomlinson
confuses
confounding
confront
confirmed
confidently
caan
cafe
##retooth
careers
liste
listing
listings
posting
postman
postwar
postcard
jeopard
##bbs
##bbels
univer
rockers
rockwell
potato
trippy
trivial
winfield
winfrey
heartening
rai
rao
rais
raid
raven
raving
raider
raises
raquel
wholehearted
schools
masterpi
romantics
freq
frech
freely
ridi
ridd
riddled
wrongly
hunting
hungar
##ggers
impressing
impressions
opinionated
irredeem
strai
straub
strained
1935
addiction
batch
cates
cattle
catastrop
singin
singular
singapo
bik
bias
bios
biker
biko
biographic
brea
brew
bread
brewer
breillat
anger
indepe
storie
distur
distill
distorted
distinction
garg
garage
garcia
menager
verd
verb
verite
verry
themsel
repug
republ
reprehensible
reporters
repressed
promo
promos
woke
woah
paula
pauline
bury
burles
burrow
burtyns
brok
2054
grain
gracie
martian
purs
purgatory
deaths
deathly
questi
difference
germ
gerrit
melo
melvi
melbourne
resol
resound
resume
residents
powerfully
powerhouse
eleme
elected
espec
righ
rife
ripping
ripley
##ictions
sorte
driv
drives
dripped
demer
painting
painted
valid
region
regional
lighthearted
completist
hypo
vik
golde
duc
predic
predomin
presently
iden
messed
messengers
towns
posing
poses
posse
position
positi
bloodth
larr
larg
larger
laraine
##gered
stunt
stunner
patton
pattern
##reneur
##renaline
##zzi
##zzled
##isms
##isma
assed
assass
assured
assante
succinct
cheapy
cheapie
cheapest
clearl
clearing
bunc
bundled
bunnies
nearby
syriana
touc
deserving
deserted
audie
audition
audrey
audacious
daft
myste
##rifi
shameless
boxset
oddities
ska
sundown
seasoned
seasoning
woodward
shockin
alongside
unti
talkshow
appearances
##vincing
magi
majorly
annual
annals
planes
planets
countr
countdown
helena
helicop
prix
prizes
vanities
vanaja
##insky
insta
leaders
exceptions
australi
campiness
campfire
robson
robots
robiche
bagh
denise
denial
utah
utopia
heading
richards
richardson
centr
centu
centres
centric
ghou
ghos
##majer
shoes
shoots
shohei
solicitor
avery
avera
averag
turtle
turtur
stopping
previewed
casey
usefu
##arron
styrofo
1961
babies
efficient
varney
varma
variable
infl
info
infant
infomer
infidel
infinite
deba
debra
debate
debated
debating
deborah
debonair
30am
30pm
dumbland
dumbfounded
sammi
refuse
predictab
cours
courtes
antz
antoine
antitrust
dogma
talente
talentless
subjective
slew
slept
sixtie
lucki
effecti
airwolf
airways
aircraft
airtight
billie
billing
capita
capshaw
medi
medie
medio
mediev
medium
meditation
meditative
legion
legitimate
##ushed
117
juice
judg
judas
mistry
mistaking
yesterda
moderate
moderately
pacing
compares
murderer
merle
mercy
mercil
mercur
merkerson
meredith
mercifully
passage
passengers
vampi
plainf
plainsman
credible
credence
ridicules
difficulties
latcho
sonny
takin
takas
150
mcqu
mcgo
mcdo
mcgregor
mcgee
pastor
freda
frederick
humoro
histori
historica
damm
damian
milk
milos
milian
milton
tarnish
##ennial
englishman
fascinati
darn
dares
darlene
darndest
##viled
forms
formidable
suspen
suspend
suspicious
stephens
stephano
sander
thoro
behi
behaved
recentl
dreamy
dreaming
dreamgirls
karim
karisma
nico
nicel
nicola
##ova
##ovic
recei
welch
scaring
scarred
fantasies
criticise
criticized
captu
capturing
puffy
##ouni
brothe
profit
profanity
elsewhere
cameras
cameroon
##ocally
##occhio
##leties
intric
intricate
miniature
particu
particolare
deliber
delibera
memorab
independant
berenger
hims
porky
inspire
footie
saturd
creativ
violated
ahem
ahista
periphery
helpful
calam
calvin
rarel
rarity
rarest
seaga
shakesp
charlton
surfers
broadw
fulf
hotshot
jerome
jersey
leary
learns
##giving
togeth
togethe
props
prophetic
proportions
intrig
importa
philist
photo
photogra
copycat
landed
landsca
wheels
wheeler
carlito
carlitos
legenda
folk
looke
radz
radar
radiant
radford
wils
willy
wilkin
willem
wilhel
beset
scientific
reminder
opener
appreh
columbine
columbos
secrets
dialogu
boogeyman
boogens
journ
journe
sentenced
tormented
thinnes
combi
costume
embark
embrace
dreading
bolan
bolkan
cowbo
cowgirls
closest
extravagan
niven
niki
nikh
nihal
nihil
palme
tonite
staying
programs
buscemi
eighty
lesb
raining
revive
revival
bruhl
brains
brainl
brainless
braindead
blocks
flawless
flawlessly
humanity
thoroughl
183
180
186
benedict
gripe
operations
##going
strik
strive
stumbl
remarked
travelers
includin
girlfri
girlfrien
redeemed
siodmak
sideways
wwi
quickl
disagreed
buffoon
intelligently
intelligence
authors
loneliness
lawyers
pilgr
ramble
rambling
ramgopal
sickly
islands
anthem
anthrop
weste
teachers
providing
grande
grandad
grandma
grandfather
northe
northam
obses
politi
politica
garba
europeans
apprecia
bilal
bbc1
bbc2
casa
casually
cassel
casomai
futu
litera
literat
netw
occa
occult
synchron
initiation
forgott
prais
portrayals
kriem
reno
renny
renown
renewed
beatl
frontal
frontline
frontiers
##ifications
regards
profession
professio
professionally
homesp
hometown
homicidal
malone
malta
malfunction
pieced
rests
restaur
particularl
blockbu
maslin
masoch
masala
metro
paying
payne
packing
sensible
sensiti
sensibility
fortu
##selor
##seltown
spoofed
spoofing
accurately
breakout
breakdown
annoys
countryside
14th
cassie
cassette
dicken
panther
panthe
##prom
##proof
waterdance
waterston
watergate
suffice
fellini
officers
premium
continuation
appeali
presentations
fatty
lynne
voiced
voices
technicolor
bottle
numbingly
motive
soapdish
spliced
troupe
unease
unequiv
advant
advani
rolls
buyer
masses
tendency
invo
invari
invaders
invigorating
##oooooooooo
chaos
greenlight
disclos
steps
trekkies
avoids
bollywo
escort
otro
ranc
ranma
salem
salena
##atozov
stereo
flatley
depression
respectable
girlfriends
developing
bones
diner
gunfight
taek
##ussy
##kinetic
##atchers
choi
choices
outsider
outsiders
macab
macdowell
stuffy
stuffed
indiana
currie
currents
authority
autumn
banter
flyer
google
kiarost
ronnie
russel
racer
raccoon
racoce
squar
signi
soulless
soultaker
tourneur
##ucated
##works
mount
semitism
subtleties
spani
spanning
scratcher
scrambles
traders
transpl
transition
transfer
transformed
transsexual
1925
similarly
similarit
cinematograph
cinematographer
matthias
radiofre
250
25th
2525
derrick
feared
fearnet
joys
joyous
sneaking
##ricious
ashes
ashura
noticeable
immers
immature
immoral
jacksons
expressed
expression
expressionist
detailing
spiritually
achi
achingly
bandits
hidd
softly
devils
clinton
joanne
##ifiably
smarts
smartest
explorer
exploring
explorers
explaining
domer
hatin
hayden
mcconaugh
mccartney
nypd
ninj
ninth
temp
tempo
templar
##ronism
##backs
sellin
formerly
savages
altar
altioklar
arrive
understudy
spectrum
errors
experienc
occasional
lynchian
troubles
bogdon
bogdan
furlong
##ylon
##knot
informing
innocence
bearer
bearing
requiem
reynold
revolver
bradford
shades
nevada
vehicles
condi
condensed
affinity
affirm
desperation
desperado
attacks
contrad
curiously
hallowe
opportunities
999
cabot
dressing
dressler
lorne
laborious
puns
tearful
trilo
terrorist
terrorists
cracking
dragons
demonicus
demonstrated
magnum
succee
ballad
bachman
caugh
mirac
mirrors
miragl
penny
penultimate
ringing
ringmaster
##yaan
therap
mobile
mobster
existed
existent
existential
encore
machin
machines
unsatisf
unsentiment
unsuspect
unknow
quirk
tracks
bullitt
bulldog
bullfighter
insults
witchy
snowstorm
symphony
mediocrity
extraordinarily
blethyn
dunst
dunks
duncan
janse
janos
linnea
rodden
rodanthe
skelet
##ropic
##ricks
answers
ingmar
statu
statistical
devian
devoid
devito
imagi
thanksgiving
mikels
meaningless
freshmen
graceful
referring
sleepy
sleepers
sleepwal
sleepwalk
militar
combinat
combinatio
sneaky
fashionable
circl
dorian
kimberly
multitude
nasties
olsen
vacatio
repeating
librarian
chicken
sophia
roses
gradua
keyboard
screams
screamers
screamingly
speakman
montreal
montagne
sleeve
sleepless
celeb
alexandre
mountainous
00pm
gardner
ivory
route
lovingly
concise
conclusion
archbishop
complexity
commonly
impressionable
impressionistic
rivera
marketed
languid
apocal
gorgeo
ryu
rendering
tunnel
ursula
##okov
##burg
##burne
threesome
threads
bello
bellocchio
hacked
hackman
primitive
sprung
usaf
throwback
struggles
admiration
colorado
dougla
satires
witnesses
availa
breathless
obsessing
lifetim
argentina
unknowns
vacationing
immediate
bodyguard
duty
lindy
micro
nuts
piggy
mocking
brandon
youthful
socie
1917
1916
uncanny
uncensored
submitting
submitted
submission
submariner
daniels
depicted
hamlets
informative
informati
balzac
cusak
durin
duran
etienne
gala
hillarious
tasteless
wallac
##vaag
hawth
hawking
hawks
bronte
bronze
bronenosets
atlan
atlanta
philli
phillip
hauntingly
shadowy
succeeded
recognized
recognizing
cagn
caged
graphically
ilk
nolte
voyeur
zeke
searing
shipment
shipman
shipwreck
practical
deceive
deceiving
unworthy
communicate
silverlake
biopics
loudon
virginal
attracts
revolutiona
revolutionary
cosimo
esque
eaters
hila
hildegard
hoste
hostel
tamo
tamil
##ramid
##ezah
##bluth
beaches
relevance
seventy
abysmally
chopper
protocol
##anteed
mannen
pressburger
tests
testoster
hipness
surrealist
surrealistic
slickly
simpler
familia
improbable
physical
controve
screenwriters
depths
networks
tediously
enthusia
bowers
bowled
cambridge
civi
flex
gilles
gamble
gambling
jumps
lyrics
maman
muni
munch
muniz
mitchum
pinn
pinter
riveted
##green
##wait
sacr
sacrific
ambition
ambient
ambiti
ambushed
knights
knightley
governme
adores
clarke
clarence
rohm
rohinton
crowe
crowded
belonging
incomplete
godfrey
franchises
influenced
louisiana
inspiratio
35mm
astral
cadet
hulu
hulce
jungles
ledger
pedantic
rattles
##worthy
springsteen
knowledgeable
clarks
clarkson
seriou
implies
carrere
counselor
glorify
contempl
collectio
portraits
assumpt
sydne
exceptionall
hammerhead
bhag
bhai
ducks
duckman
ethics
hideously
jerem
nerdy
pasolin
rhine
rhoda
yuk
##damore
ishimoto
shared
champions
preparing
unmatch
peckinpah
awkwa
blandly
blandings
blonder
gratifying
offensively
educated
accomp
fantastical
artistically
ernesto
rajnik
rajinik
hungry
syndicated
daisenso
philipines
olivia
civilized
civilization
dimen
dimension
feds
feder
fishbourne
fishburne
gillian
gilligan
joline
lancaster
naruse
pixel
ranking
telugu
wolfman
##mination
##wige
brighton
sabretooth
spielb
enviro
diamantopoulos
outdid
fawlty
claust
disaffect
cringed
cringing
fluke
fluidly
florinda
growth
geeks
geeky
summaries
swordsman
electra
psychokinetic
responsi
symbologist
anticipate
anticipation
28th
auteuil
crippled
cautious
fingersmith
jarva
koen
kohut
lunacy
pyramid
rigolet
racking
wracked
##crat
anchorman
tolerant
tolerate
tolerable
beij
stalk
destination
tricks
faults
clifford
sergeants
aweso
blaxploit
offside
slams
slammed
caroline
stealer
marsden
marshm
marshal
interviews
commander
saddled
morality
battles
exposes
apparentl
photographs
suspects
principle
principles
encounters
sophisticate
correctly
splendidly
ludicrously
bartlett
fervent
fernan
gadar
gallery
gallagher
ossessa
paleont
sooooo
sooooooo
vidor
##ervedly
##anthropic
beastmaster
##adelic
stern
sterile
brigadoon
shaq
shawshank
frightmare
prolif
prolifer
candace
manipulates
unpredictable
cobweb
drummond
coupled
idealized
corbucci
elementary
journalis
meteorite
gunsling
translates
innovati
convicted
uninspiring
astronauts
margarethe
birds
fidel
jenny
klap
kermit
kingsley
mutant
mutants
morte
mortal
paddy
pearce
pitts
tigers
wendigo
##rrr
rebar
rebane
rebirth
reeling
liberals
webster
albuquer
priestley
spotting
##odox
trendy
facet
cloke
peggy
dissing
dissapo
bloated
surrender
cocky
cockney
boldly
keenan
kellie
endearingly
glimps
glasses
deliriously
sublim
cannibalism
apologizing
irrep
irreverent
grabbing
elephants
puzzled
juliette
illustri
illuminata
hamilto
hamiltons
falsely
##wwwwwwww
##wwwwwww
demonstration
mockumentaries
neighborh
association
associated
overwhelmingly
conflicted
destroys
azn
axiom
celine
dilett
diluted
dilemma
dumped
dynamo
fischer
fictio
goreme
hanson
hesitation
kazan
kazuo
linked
mastorak
nailed
piranha
sicily
sillier
tempting
##efsky
toxie
insect
insects
selleck
shrink
shrunk
shrouded
shrieker
shepard
mytho
chori
dodge
preaching
adrianne
heights
displayed
tweet
cronica
guardian
bootle
appropri
keeper
keeffe
screwed
consisting
consistently
consistency
paranoid
exploitive
masterpieces
freaks
distribution
reportedly
skillfully
announcer
babysat
inferno
infernal
divorced
nicholson
duchovney
whodunn
ayers
akshay
cereb
ceremony
causes
higgins
komizu
lillian
mulva
mulholland
pianist
pushed
rooker
rivalry
sinks
sinking
seduction
seduced
seduces
tutu
tierney
vigalondo
##gener
inhuman
hazing
hazlehurst
fragment
fragile
worrying
deviates
deviyaan
scandal
claudio
roommates
funera
gothos
bordering
margot
impresse
schoeds
emeril
emerged
extras
parrots
scriptwriting
scriptwriters
englund
curtiz
explosion
explosive
potboilers
riotously
hyperbole
calibre
lamberto
1891
observat
observation
armando
punches
galaxina
dismissed
dismissal
survivor
survivors
wizards
unimaginatively
israeli
aldrich
bahra
egot
gaspar
jumped
kraj
krabbe
lilies
license
licence
laziest
occu
pimped
pimlico
signing
source
tattoo
umberto
molasses
##restria
todays
innumerable
inherited
staging
staggered
sailor
weighted
praying
engineer
meadowvale
delete
conversa
intolerably
prequels
1904
1905
mumbo
unconvincing
goebbels
climbing
clocking
horrigan
dispense
rooting
cranked
crudely
flagship
overacts
charismatic
guarant
guaranteed
caricature
dropped
trauma
traumat
traumatic
possibilities
miscasting
holocau
baroness
objectively
harmony
paradis
subjec
certai
swayz
corporations
snippet
baffling
adventurous
hitchcoc
strikingly
establishme
significance
##nnnnnnnn
documen
terminally
terminus
challenges
ambiguities
transported
sharply
hesitant
stretches
prejudiced
aristocrats
dashed
hendricks
hannah
kanin
lerman
pionee
rothrock
tmc
tmnt
tasty
tastes
tashlin
wuhl
yaku
wholly
##uttering
comfortable
chayevsky
chayefsky
chocked
sudsy
prodigal
protector
sparkling
defeats
scaven
scanning
scalp
scales
concentrate
uncomprom
govind
govinda
aggressive
imperial
imperium
artyfart
blasting
cruise
cruising
undisputed
undeservedly
slackers
financial
financially
travell
travelling
bubba
bubbling
applies
kidnapp
kidnapped
phonies
emphasis
emphasize
georget
georges
superficial
switc
switching
trepidation
trepidati
exploitative
winners
promoting
promotion
resisted
elevated
valeria
positiv
bloodsucker
bloodsuckers
patterson
determined
campaign
tiffany
weaknesses
embarass
susannah
motivation
motivated
luciano
conceivab
achievements
researc
researching
rudyard
deafening
illustrates
adolesce
adolescent
acknowledging
himmelen
congratulate
08th
747
aghast
auntie
censor
censored
djs
fistful
feroz
gavin
gamera
korine
kentucky
laputa
nadir
nunsploitation
napole
norton
nashville
pandora
pizza
piznars
pinocchio
ritual
reruns
sizemore
tesich
vlad
vlastimil
##riede
##yrati
##films
##101
monday
isolated
##stige
replaces
##addling
##utsu
ascension
shaped
lipstick
abdu
##keeper
churned
sullavan
sullivan
alarmed
gremlins
enigma
enigmatic
diplomatic
plagued
conjure
conjures
intende
aficionad
aficionado
poisonous
unnerving
governess
adequate
horribl
dishonest
proceed
procedural
leatherheads
levinson
crooks
gruesome
grasp
grinders
recovery
overdone
overdue
betwee
cocaine
acrobat
highsch
margina
inconvenient
defiantly
schroder
scheider
schmaltz
schmaltzy
monstrously
pacific
parallel
parallels
rugby
rubber
relentlessly
interaction
entranced
swinging
exclusive
exclusively
avp2
winnipeg
singaporean
distinguished
verneuil
patrons
skimming
skippy
skateboarding
sleaze
mercenary
puerile
nikol
nikki
niagra
niagara
1800s
salesman
jeffersons
erroneous
erroneously
condescending
penalty
cyborg
cyborgs
devastating
conclude
nonsensical
maximum
improvements
transcend
knoxville
implausibility
dimensional
hypnot
hypnotic
cunningham
nomadic
engineered
unspeakable
unspeakably
projectionist
circumstances
taiwanese
venezia
unrelenting
individuals
aurvaag
bickering
baptist
bertrand
cimarron
dhawan
elfriede
ff7
geared
gawd
hirosh
herschell
hommes
kalatozov
krige
kooky
kittens
lapsed
langella
mendes
meticulously
nimoy
naughty
naudet
oxford
pardon
pallbearer
pumpkin
rousing
szif
sedg
squeamish
tng
tinseltown
tongue
taboo
tactical
tibet
tenchi
ucsb
vadis
voodoo
wimpy
wacky
yuma
yawning
zipper
##orphosis
moviegoers
inimitable
instruc
ontario
restrictions
reiterating
rewrites
stolen
stifler
hahahah
bryan
brentwood
brooding
brodsky
assembles
shields
abraham
fringe
fraulein
friggin
exchange
loaned
sporadically
spunky
spindell
amnesiac
hassan
gretchen
encompass
dekalog
deemed
byrne
scuzzy
scully
concocted
precisely
prestigious
feinstone
fabrication
uneducated
unemployed
unleash
unavail
claptrap
peaches
heiress
heinlein
uproarious
twisters
orthodox
lexington
fundamental
arthu
blasphemous
oklahoma
perdition
flourished
bigotry
wargames
slipknot
wondrous
drugged
backdrop
travail
borowczyk
stratten
courage
crappiest
colombian
decadent
declaration
incarnate
tyrann
misnomer
misogynistic
evokes
download
obvio
obelix
elaborate
mikhail
artemisia
humiliating
superlative
interwoven
indonesian
coronado
excessive
situations
exploding
cuthbert
jealousy
trifle
raunchily
irresistible
expatriate
2022
reservations
democratic
valuable
sundanc
ghilli
mcadams
milanese
stephanie
pufnstuf
landscapes
boosts
songwriter
1850
firefighters
krasinski
metamorphosis
metaphys
motorcy
salvage
established
maclaine
melodramatic
vengeance
limitations
mcclure
mccormick
nymphomaniac
altogether
punctu
sophomore
unfunniest
convoluted
greystoke
constitutes
constrained
zeffirelli
tremendously
testament
improvisation
bulgaria
gammera
incomparable
rhyth
unmissable
accompanied
dimwit
electricians
californi
whimsical
fernando
pennsylvania
wisecracking
epitomizes
aztec
exhilarating
acquaintance
automobiles
kirsten
inhabited
disposable
basketb
cavalier
whirlwind
reconcile
schizophrenic
narcissistic
bureaucrat
svankmajer
misrepresent
schwarzenegger
indescribable
aerial
aaliyah
bfg
blythe
bassett
bathebo
cb4
cacoyann
cordial
capsule
dandy
doughty
dwarf
ecole
ewoks
foppish
fumavano
fessenden
feresten
fiendish
fuckland
fausa
gleason
gomez
gespenster
hlots
hickey
hudson
hynkel
icarly
jelinek
jigsaw
jansen
jeroen
kendall
kareena
kahin
korkarlen
kershaw
ketchup
kaddiddle
lulu
luscious
larkin
lullaby
lanka
lingered
mitzi
nibelung
niami
nascar
netherlands
nunez
ollie
oberon
oeuvre
olymp
pesci
pistol
paget
pakeezah
pivot
penchant
porsche
pyaar
rpg
rgv
raho
sesame
sothern
sordid
tentative
tainted
tudor
tarkovsky
tuesday
tugging
tiresome
ulysses
vapid
vindicator
vintage
vogue
vibrant
wladyslaw
wandered
widesc
wisconsin
xizao
yvonne
zandalee
zarkorr
##nostic
##friars
##hopper
##hibited
thalberg
thackeray
thalluri
thourough
theflickgu
mouthing
ishii
##stairs
anachronism
antena
tollinger
begrud
retains
haifa
brendan
brysomme
forensic
forlorn
shimizu
shudder
shannon
shorthand
shuffling
shwaas
liberties
withnail
chameleon
chintzy
chrys
chavez
exemplifies
external
exterminators
solino
sugiyama
priscilla
allende
spooner
spettatrice
sprightly
likelihood
enabling
enforcement
cantonese
manipu
mandingo
mankiewicz
manufact
nephew
dizzying
scuddamore
scintillating
scuba
ploughing
plankton
outbreak
mazzello
mahatma
troopers
connelly
convenientl
conseguenze
intensity
pregnant
mukhsin
favela
facilit
unresolved
unquestionably
unheralded
fangoria
disadvantage
upscale
serendipity
imbecil
roscoe
starevich
periscope
belgrade
recounts
recruit
undistinguished
guidelines
slogging
sloooow
drenched
dramedy
undervalued
pretensions
buchanan
bucharest
##rofessional
administr
inconsist
cinemascope
misadventures
giornata
barricade
phoebe
embezzler
hitokiri
subgenre
subsequent
rugrats
intergalactic
interminable
intertwined
intermittently
entrepreneur
moriarty
retrospect
jeopardy
wholeheartedly
irredeemably
catastrophe
menagerie
repugnant
republican
burtynsky
robicheaux
turturro
styrofoam
infidelity
courtesy
medieval
merciless
mcgovern
mcdoakes
wilkinson
extravaganza
nikhil
nihalani
kriemhild
restaurant
masochistic
pantheon
unequivocally
disclosure
racocevic
transferred
radiofreccia
mcconaughey
bogdanovich
unsentimental
sleepwalkers
testosterone
pasolini
rajinikanth
disaffected
rigoletto
albuquerque
dissapoint
goremeister
mastorakis
tattooed
artyfartyrati
piznarski
cacoyannis
kaddiddlehopper
nibelungen
theflickguy
